{
  "version": "1.0",
  "truncation": null,
  "padding": null,
  "added_tokens": [
    {
      "id": 0,
      "content": "[UNK]",
      "single_word": false,
      "lstrip": false,
      "rstrip": false,
      "normalized": false,
      "special": true
    },
    {
      "id": 1,
      "content": "[CLS]",
      "single_word": false,
      "lstrip": false,
      "rstrip": false,
      "normalized": false,
      "special": true
    },
    {
      "id": 2,
      "content": "[SEP]",
      "single_word": false,
      "lstrip": false,
      "rstrip": false,
      "normalized": false,
      "special": true
    },
    {
      "id": 3,
      "content": "[PAD]",
      "single_word": false,
      "lstrip": false,
      "rstrip": false,
      "normalized": false,
      "special": true
    },
    {
      "id": 4,
      "content": "[MASK]",
      "single_word": false,
      "lstrip": false,
      "rstrip": false,
      "normalized": false,
      "special": true
    }
  ],
  "normalizer": {
    "type": "Sequence",
    "normalizers": [
      {
        "type": "Lowercase"
      },
      {
        "type": "NFD"
      },
      {
        "type": "StripAccents"
      }
    ]
  },
  "pre_tokenizer": {
    "type": "Sequence",
    "pretokenizers": [
      {
        "type": "Whitespace"
      },
      {
        "type": "Digits",
        "individual_digits": true
      },
      {
        "type": "ByteLevel",
        "add_prefix_space": true,
        "trim_offsets": true,
        "use_regex": true
      }
    ]
  },
  "post_processor": {
    "type": "ByteLevel",
    "add_prefix_space": true,
    "trim_offsets": true,
    "use_regex": true
  },
  "decoder": {
    "type": "ByteLevel",
    "add_prefix_space": true,
    "trim_offsets": true,
    "use_regex": true
  },
  "model": {
    "type": "BPE",
    "dropout": null,
    "unk_token": null,
    "continuing_subword_prefix": null,
    "end_of_word_suffix": null,
    "fuse_unk": false,
    "byte_fallback": false,
    "vocab": {
      "[UNK]": 0,
      "[CLS]": 1,
      "[SEP]": 2,
      "[PAD]": 3,
      "[MASK]": 4,
      "!": 5,
      "\"": 6,
      "#": 7,
      "$": 8,
      "%": 9,
      "&": 10,
      "'": 11,
      "(": 12,
      ")": 13,
      "*": 14,
      "+": 15,
      ",": 16,
      "-": 17,
      ".": 18,
      "/": 19,
      "0": 20,
      "1": 21,
      "2": 22,
      "3": 23,
      "4": 24,
      "5": 25,
      "6": 26,
      "7": 27,
      "8": 28,
      "9": 29,
      ":": 30,
      ";": 31,
      "<": 32,
      "=": 33,
      ">": 34,
      "?": 35,
      "@": 36,
      "[": 37,
      "\\": 38,
      "]": 39,
      "^": 40,
      "_": 41,
      "`": 42,
      "a": 43,
      "b": 44,
      "c": 45,
      "d": 46,
      "e": 47,
      "f": 48,
      "g": 49,
      "h": 50,
      "i": 51,
      "j": 52,
      "k": 53,
      "l": 54,
      "m": 55,
      "n": 56,
      "o": 57,
      "p": 58,
      "q": 59,
      "r": 60,
      "s": 61,
      "t": 62,
      "u": 63,
      "v": 64,
      "w": 65,
      "x": 66,
      "y": 67,
      "z": 68,
      "{": 69,
      "|": 70,
      "}": 71,
      "~": 72,
      "Ġ": 73,
      "Ġt": 74,
      "he": 75,
      "Ġa": 76,
      "Ġs": 77,
      "in": 78,
      "Ġw": 79,
      "Ġ.": 80,
      "Ġthe": 81,
      "re": 82,
      "Ġ,": 83,
      "Ġi": 84,
      "ou": 85,
      "ha": 86,
      "Ġb": 87,
      "Ġo": 88,
      "ed": 89,
      "Ġm": 90,
      "ing": 91,
      "Ġc": 92,
      "Ġf": 93,
      "Ġhe": 94,
      "er": 95,
      "nd": 96,
      "Ġto": 97,
      "Ġl": 98,
      "Ġd": 99,
      "hi": 100,
      "en": 101,
      "on": 102,
      "as": 103,
      "Ġp": 104,
      "or": 105,
      "ll": 106,
      "Ġ'": 107,
      "Ġy": 108,
      "Ġand": 109,
      "Ġn": 110,
      "it": 111,
      "es": 112,
      "an": 113,
      "Ġg": 114,
      "Ġha": 115,
      "Ġof": 116,
      "Ġin": 117,
      "om": 118,
      "hat": 119,
      "ar": 120,
      "at": 121,
      "Ġ\"": 122,
      "Ġe": 123,
      "Ġher": 124,
      "Ġbe": 125,
      "Ġwas": 126,
      "Ġyou": 127,
      "Ġit": 128,
      "Ġshe": 129,
      "Ġhi": 130,
      "ow": 131,
      "st": 132,
      "ly": 133,
      "Ġre": 134,
      "le": 135,
      "Ġthat": 136,
      "ld": 137,
      "ot": 138,
      "id": 139,
      "gh": 140,
      "ac": 141,
      "Ġon": 142,
      "ve": 143,
      "Ġst": 144,
      "Ġas": 145,
      "Ġu": 146,
      "ay": 147,
      "et": 148,
      "se": 149,
      "ut": 150,
      "ri": 151,
      "Ġk": 152,
      "al": 153,
      "Ġ?": 154,
      "Ġwe": 155,
      "Ġfor": 156,
      "Ġth": 157,
      "oo": 158,
      "ith": 159,
      "ent": 160,
      "ic": 161,
      "ght": 162,
      "ould": 163,
      "Ġh": 164,
      "Ġwith": 165,
      "ion": 166,
      "Ġhis": 167,
      "out": 168,
      "ad": 169,
      "ver": 170,
      "Ġr": 171,
      "Ġan": 172,
      "Ġat": 173,
      "el": 174,
      "ke": 175,
      "ir": 176,
      "Ġme": 177,
      "Ġli": 178,
      "Ġ.\"": 179,
      "ur": 180,
      "Ġhad": 181,
      "Ġbut": 182,
      "all": 183,
      "am": 184,
      "is": 185,
      "Ġmy": 186,
      "Ġnot": 187,
      "ce": 188,
      "Ġso": 189,
      "her": 190,
      "ch": 191,
      "Ġj": 192,
      "Ġ-": 193,
      "Ġis": 194,
      "ter": 195,
      "Ġse": 196,
      "ore": 197,
      "Ġthi": 198,
      "Ġsh": 199,
      "pp": 200,
      "Ġfr": 201,
      "ain": 202,
      "Ġdo": 203,
      "red": 204,
      "ked": 205,
      "ome": 206,
      "Ġ!": 207,
      "Ġthis": 208,
      "ro": 209,
      "im": 210,
      "Ġwhat": 211,
      "ill": 212,
      "il": 213,
      "ct": 214,
      "ust": 215,
      "Ġhim": 216,
      "Ġsa": 217,
      "Ġal": 218,
      "Ġsu": 219,
      "Ġne": 220,
      "hing": 221,
      "ant": 222,
      "Ġwh": 223,
      "Ġup": 224,
      "Ġhave": 225,
      "Ġout": 226,
      "king": 227,
      "Ġkn": 228,
      "Ġwhe": 229,
      "ess": 230,
      "Ġloo": 231,
      "Ġno": 232,
      "Ġfrom": 233,
      "Ġab": 234,
      "Ġdid": 235,
      "rou": 236,
      "Ġthey": 237,
      "Ġlike": 238,
      "ack": 239,
      "ally": 240,
      "ag": 241,
      "us": 242,
      "Ġif": 243,
      "Ġall": 244,
      "Ġwould": 245,
      "Ġ?\"": 246,
      "Ġle": 247,
      "qu": 248,
      "Ġcon": 249,
      "ia": 250,
      "Ġde": 251,
      "un": 252,
      "ight": 253,
      "Ġex": 254,
      "ul": 255,
      "one": 256,
      "Ġcould": 257,
      "Ġwere": 258,
      "os": 259,
      "han": 260,
      "pe": 261,
      "Ġjust": 262,
      "Ġcl": 263,
      "ind": 264,
      "Ġgo": 265,
      "ab": 266,
      "est": 267,
      "Ġlel": 268,
      "em": 269,
      "ven": 270,
      "Ġwor": 271,
      "ry": 272,
      "Ġone": 273,
      "Ġun": 274,
      "hed": 275,
      "Ġfe": 276,
      "Ġthere": 277,
      "ard": 278,
      "um": 279,
      "ig": 280,
      "Ġint": 281,
      "art": 282,
      "Ġlelia": 283,
      "Ġsaid": 284,
      "Ġwhen": 285,
      "ace": 286,
      "uk": 287,
      "Ġv": 288,
      "Ġare": 289,
      "Ġcom": 290,
      "Ġany": 291,
      "Ġtim": 292,
      "ation": 293,
      "Ġag": 294,
      "ers": 295,
      "Ġwho": 296,
      "res": 297,
      "Ġabout": 298,
      "Ġback": 299,
      "ast": 300,
      "ood": 301,
      "Ġthem": 302,
      "own": 303,
      "au": 304,
      "Ġwhi": 305,
      "ate": 306,
      "Ġey": 307,
      "ous": 308,
      "Ġor": 309,
      "and": 310,
      "fe": 311,
      "Ġby": 312,
      "very": 313,
      "ame": 314,
      "our": 315,
      "Ġcan": 316,
      "lf": 317,
      "Ġ,\"": 318,
      "Ġtime": 319,
      "Ġsome": 320,
      "way": 321,
      "Ġhow": 322,
      "Ġyour": 323,
      "Ġte": 324,
      "Ġqu": 325,
      "Ġsm": 326,
      "Ġbl": 327,
      "ong": 328,
      "op": 329,
      "Ġnow": 330,
      "Ġknow": 331,
      "Ġthou": 332,
      "Ġeven": 333,
      "..": 334,
      "Ġma": 335,
      "ep": 336,
      "ist": 337,
      "Ġthen": 338,
      "Ġtoo": 339,
      "Ġri": 340,
      "ck": 341,
      "Ġpl": 342,
      "Ġaf": 343,
      "are": 344,
      "ort": 345,
      "ide": 346,
      "Ġinto": 347,
      "Ġdon": 348,
      "Ġget": 349,
      "Ġbeen": 350,
      "ive": 351,
      "Ġmore": 352,
      "mp": 353,
      "ra": 354,
      "Ġman": 355,
      "Ġeyes": 356,
      "Ġhand": 357,
      "Ġwant": 358,
      "Ġthan": 359,
      "ak": 360,
      "urn": 361,
      "ther": 362,
      "Ġtheir": 363,
      "Ġdidn": 364,
      "ice": 365,
      "Ġsp": 366,
      "fore": 367,
      "self": 368,
      "ie": 369,
      "Ġro": 370,
      "Ġagain": 371,
      "Ġmo": 372,
      "Ġbefore": 373,
      "Ġpro": 374,
      "Ġbec": 375,
      "Ġgr": 376,
      "round": 377,
      "ge": 378,
      "Ġar": 379,
      "Ġ...": 380,
      "Ġen": 381,
      "Ġtw": 382,
      "Ġafter": 383,
      "ink": 384,
      "sed": 385,
      "te": 386,
      "Ġdown": 387,
      "Ġover": 388,
      "ting": 389,
      "Ġhead": 390,
      "Ġsom": 391,
      "dd": 392,
      "Ġco": 393,
      "Ġonly": 394,
      "Ġsomet": 395,
      "Ġcha": 396,
      "ted": 397,
      "Ġsl": 398,
      "if": 399,
      "Ġsee": 400,
      "Ġwill": 401,
      "Ġsc": 402,
      "Ġlooked": 403,
      "Ġother": 404,
      "Ġ!\"": 405,
      "Ġtr": 406,
      "other": 407,
      "ond": 408,
      "Ġway": 409,
      "Ġwell": 410,
      "Ġsomething": 411,
      "ose": 412,
      "Ġbo": 413,
      "Ġoff": 414,
      "ap": 415,
      "ving": 416,
      "ity": 417,
      "Ġstill": 418,
      "Ġright": 419,
      "ound": 420,
      "ine": 421,
      "Ġevery": 422,
      "Ġfl": 423,
      "iz": 424,
      "Ġsay": 425,
      "nt": 426,
      "ull": 427,
      "Ġpr": 428,
      "tle": 429,
      "Ġpo": 430,
      "ade": 431,
      "Ġ:": 432,
      "act": 433,
      "led": 434,
      "Ġthing": 435,
      "ure": 436,
      "Ġthought": 437,
      "Ġlook": 438,
      "ause": 439,
      "Ġlo": 440,
      "Ġta": 441,
      "ved": 442,
      "ward": 443,
      "Ġface": 444,
      "Ġus": 445,
      "ble": 446,
      "Ġwhy": 447,
      "Ġthink": 448,
      "Ġmu": 449,
      "Ġshould": 450,
      "Ġtwo": 451,
      "pl": 452,
      "reat": 453,
      "ji": 454,
      "Ġaround": 455,
      "Ġturn": 456,
      "Ġlet": 457,
      "ious": 458,
      "Ġhere": 459,
      "Ġbecause": 460,
      "ened": 461,
      "ass": 462,
      "Ġll": 463,
      "able": 464,
      "Ġgoing": 465,
      "Ġfeel": 466,
      "Ġbr": 467,
      "Ġgu": 468,
      "ft": 469,
      "thing": 470,
      "Ġmuch": 471,
      "ps": 472,
      "th": 473,
      "Ġpe": 474,
      "Ġreally": 475,
      "Ġye": 476,
      "ance": 477,
      "Ġdis": 478,
      "Ġlit": 479,
      "ated": 480,
      "Ġ[": 481,
      "Ġgl": 482,
      "Ġ0": 483,
      "ite": 484,
      "pped": 485,
      "end": 486,
      "Ġ1": 487,
      "Ġfir": 488,
      "Ġho": 489,
      "ies": 490,
      "Ġam": 491,
      "ared": 492,
      "Ġwa": 493,
      "ick": 494,
      "Ġseem": 495,
      "Ġcont": 496,
      "Ġaway": 497,
      "Ġshin": 498,
      "Ġop": 499,
      "uka": 500,
      "ue": 501,
      "Ġwhile": 502,
      "Ġhar": 503,
      "age": 504,
      "Ġper": 505,
      "chi": 506,
      "ered": 507,
      "ire": 508,
      "elt": 509,
      "Ġchi": 510,
      "nder": 511,
      "ff": 512,
      "ress": 513,
      "Ġmade": 514,
      "Ġgood": 515,
      "ol": 516,
      "Ġpre": 517,
      "Ġrem": 518,
      "Ġhapp": 519,
      "Ġ2": 520,
      "ple": 521,
      "Ġlong": 522,
      "ud": 523,
      "Ġspe": 524,
      "Ġbet": 525,
      "rough": 526,
      "Ġlittle": 527,
      "Ġthrough": 528,
      "Ġneed": 529,
      "Ġfirst": 530,
      "Ġyuk": 531,
      "Ġfelt": 532,
      "Ġasked": 533,
      "Ġmom": 534,
      "Ġapp": 535,
      "ach": 536,
      "Ġbeing": 537,
      "Ġmis": 538,
      "wn": 539,
      "Ġsw": 540,
      "Ġday": 541,
      "ment": 542,
      "ough": 543,
      "Ġche": 544,
      "Ġac": 545,
      "Ġact": 546,
      "Ġshinji": 547,
      "Ġve": 548,
      "Ġchan": 549,
      "ady": 550,
      "Ġgir": 551,
      "Ġad": 552,
      "Ġhel": 553,
      "Ġyukin": 554,
      "per": 555,
      "Ġstr": 556,
      "ds": 557,
      "ix": 558,
      "Ġres": 559,
      "Ġnever": 560,
      "ried": 561,
      "Ġwasn": 562,
      "Ġarm": 563,
      "ince": 564,
      "ather": 565,
      "Ġimp": 566,
      "ied": 567,
      "Ġunder": 568,
      "ci": 569,
      "ars": 570,
      "ave": 571,
      "Ġmake": 572,
      "Ġsur": 573,
      "riend": 574,
      "ase": 575,
      "Ġgirl": 576,
      "ence": 577,
      "Ġfo": 578,
      "Ġwhere": 579,
      "Ġmoment": 580,
      "ng": 581,
      "man": 582,
      "Ġsha": 583,
      "Ġhas": 584,
      "ily": 585,
      "Ġwat": 586,
      "Ġch": 587,
      "Ġroom": 588,
      "Ġmay": 589,
      "Ġgot": 590,
      "ber": 591,
      "Ġkne": 592,
      "ople": 593,
      "Ġemp": 594,
      "Ġpeople": 595,
      "be": 596,
      "ched": 597,
      "Ġvery": 598,
      "oice": 599,
      "ks": 600,
      "Ġbeg": 601,
      "Ġpart": 602,
      "Ġtry": 603,
      "Ġatt": 604,
      "Ġcome": 605,
      "Ġour": 606,
      "Ġfin": 607,
      "ree": 608,
      "Ġstart": 609,
      "Ġsen": 610,
      "Ġdes": 611,
      "Ġchild": 612,
      "Ġdr": 613,
      "ect": 614,
      "Ġthough": 615,
      "ful": 616,
      "na": 617,
      "ian": 618,
      "ning": 619,
      "Ġasuka": 620,
      "Ġhelp": 621,
      "Ġfriend": 622,
      "Ġown": 623,
      "ug": 624,
      "Ġcouldn": 625,
      "Ġtake": 626,
      "ions": 627,
      "side": 628,
      "ile": 629,
      "ged": 630,
      "so": 631,
      "Ġturned": 632,
      "Ġsure": 633,
      "de": 634,
      "ually": 635,
      "Ġsec": 636,
      "ling": 637,
      "Ġtal": 638,
      "Ġwal": 639,
      "Ġbot": 640,
      "Ġhik": 641,
      "Ġreal": 642,
      "dy": 643,
      "ever": 644,
      "Ġwhich": 645,
      "Ġmi": 646,
      "Ġel": 647,
      "Ġke": 648,
      "Ġhachi": 649,
      "get": 650,
      "pect": 651,
      "Ġcame": 652,
      "Ġshi": 653,
      "Ġmat": 654,
      "ub": 655,
      "owed": 656,
      "pt": 657,
      "Ġtell": 658,
      "orm": 659,
      "Ġtook": 660,
      "Ġleft": 661,
      "Ġchap": 662,
      "Ġanything": 663,
      "Ġthings": 664,
      "Ġvoice": 665,
      "Ġknew": 666,
      "Ġwait": 667,
      "Ġyu": 668,
      "ty": 669,
      "Ġchapter": 670,
      "Ġbit": 671,
      "mm": 672,
      "Ġmind": 673,
      "Ġmean": 674,
      "Ġrel": 675,
      "ory": 676,
      "Ġonce": 677,
      "Ġlooking": 678,
      "Ġend": 679,
      "Ġcall": 680,
      "Ġ;": 681,
      "Ġcar": 682,
      "Ġlife": 683,
      "Ġwanted": 684,
      "Ġwords": 685,
      "Ġpers": 686,
      "ish": 687,
      "Ġalso": 688,
      "Ġser": 689,
      "Ġent": 690,
      "ves": 691,
      "Ġyes": 692,
      "Ġwar": 693,
      "ced": 694,
      "Ġdoes": 695,
      "Ġkal": 696,
      "Ġdoor": 697,
      "Ġthose": 698,
      "Ġenough": 699,
      "aring": 700,
      "ways": 701,
      "ool": 702,
      "Ġoh": 703,
      "Ġseemed": 704,
      "Ġdec": 705,
      "Ġcr": 706,
      "ta": 707,
      "Ġlast": 708,
      "Ġkalix": 709,
      "Ġfa": 710,
      "ren": 711,
      "Ġcou": 712,
      "Ġnothing": 713,
      "oss": 714,
      "ating": 715,
      "ont": 716,
      "Ġsince": 717,
      "ath": 718,
      "Ġrome": 719,
      "Ġromeo": 720,
      "dden": 721,
      "wards": 722,
      "Ġmost": 723,
      "Ġquest": 724,
      "xt": 725,
      "ark": 726,
      "Ġfew": 727,
      "Ġherself": 728,
      "Ġhands": 729,
      "Ġits": 730,
      "int": 731,
      "Ġperson": 732,
      "Ġwr": 733,
      "tain": 734,
      "Ġsame": 735,
      "ier": 736,
      "Ġanother": 737,
      "Ġhachiman": 738,
      "Ġev": 739,
      "less": 740,
      "oy": 741,
      "az": 742,
      "Ġbel": 743,
      "ang": 744,
      "Ġsaw": 745,
      "Ġcare": 746,
      "uck": 747,
      "sw": 748,
      "Ġsomeone": 749,
      "ary": 750,
      "oshi": 751,
      "Ġconf": 752,
      "Ġboth": 753,
      "Ġwom": 754,
      "Ġwithout": 755,
      "ready": 756,
      "Ġalready": 757,
      "Ġsit": 758,
      "aught": 759,
      "ord": 760,
      "cess": 761,
      "Ġsil": 762,
      "ial": 763,
      "Ġinst": 764,
      "Ġfind": 765,
      "pri": 766,
      "ower": 767,
      "ned": 768,
      "Ġmight": 769,
      "ma": 770,
      "ki": 771,
      "Ġput": 772,
      "Ġalways": 773,
      "Ġold": 774,
      "uth": 775,
      "iled": 776,
      "Ġret": 777,
      "Ġang": 778,
      "Ġcle": 779,
      "ult": 780,
      "Ġansw": 781,
      "Ġnew": 782,
      "Ġrec": 783,
      "Ġkill": 784,
      "ably": 785,
      "Ġnext": 786,
      "ost": 787,
      "Ġquick": 788,
      "Ġagainst": 789,
      "Ġcour": 790,
      "Ġbody": 791,
      "Ġsudden": 792,
      "ah": 793,
      "ately": 794,
      "Ġfront": 795,
      "Ġplace": 796,
      "ness": 797,
      "Ġkeep": 798,
      "mb": 799,
      "Ġsmile": 800,
      "Ġz": 801,
      "Ġyukinoshi": 802,
      "hes": 803,
      "Ġfam": 804,
      "Ġside": 805,
      "day": 806,
      "Ġbeh": 807,
      "Ġple": 808,
      "Ġyukinoshita": 809,
      "Ġsound": 810,
      "Ġsmall": 811,
      "ato": 812,
      "Ġsim": 813,
      "Ġ3": 814,
      "ook": 815,
      "**": 816,
      "Ġexp": 817,
      "we": 818,
      "Ġbehind": 819,
      "Ġwent": 820,
      "ens": 821,
      "Ġtrying": 822,
      "Ġsuch": 823,
      "used": 824,
      "Ġdif": 825,
      "ully": 826,
      "Ġsupp": 827,
      "Ġclos": 828,
      "rent": 829,
      "ention": 830,
      "Ġlight": 831,
      "Ġhard": 832,
      "Ġsk": 833,
      "Ġob": 834,
      "Ġbegan": 835,
      "Ġsat": 836,
      "up": 837,
      "ible": 838,
      "oc": 839,
      "ason": 840,
      "ching": 841,
      "ik": 842,
      "Ġaw": 843,
      "Ġbu": 844,
      "Ġmaybe": 845,
      "Ġsurpri": 846,
      "ne": 847,
      "Ġrest": 848,
      "Ġsan": 849,
      "Ġkind": 850,
      "les": 851,
      "dded": 852,
      "ner": 853,
      "Ġsoon": 854,
      "Ġunt": 855,
      "Ġtowards": 856,
      "ise": 857,
      "Ġheard": 858,
      "Ġyoung": 859,
      "Ġcomm": 860,
      "Ġfeeling": 861,
      "Ġdam": 862,
      "Ġhu": 863,
      "Ġbetter": 864,
      "Ġjul": 865,
      "most": 866,
      "Ġfound": 867,
      "Ġ(": 868,
      "Ġcontin": 869,
      "sc": 870,
      "Ġgi": 871,
      "Ġ/": 872,
      "Ġheart": 873,
      "ering": 874,
      "vel": 875,
      "Ġsecond": 876,
      "ros": 877,
      "Ġsig": 878,
      "Ġeach": 879,
      "Ġfriends": 880,
      "Ġread": 881,
      "Ġever": 882,
      "og": 883,
      "Ġcor": 884,
      "ently": 885,
      "Ġjulian": 886,
      "ura": 887,
      "Ġalmost": 888,
      "Ġreason": 889,
      "Ġhum": 890,
      "Ġdoing": 891,
      "Ġsch": 892,
      "aw": 893,
      "Ġmust": 894,
      "Ġsor": 895,
      "row": 896,
      "Ġcomp": 897,
      "Ġnight": 898,
      "Ġstand": 899,
      "ys": 900,
      "Ġworld": 901,
      "Ġgave": 902,
      "Ġear": 903,
      "Ġopen": 904,
      "oke": 905,
      "Ġgri": 906,
      "Ġeverything": 907,
      "Ġwoman": 908,
      "Ġuntil": 909,
      "Ġpres": 910,
      "Ġtold": 911,
      "aya": 912,
      "Ġunderst": 913,
      "Ġhold": 914,
      "Ġbreat": 915,
      "Ġhair": 916,
      "Ġlot": 917,
      "ream": 918,
      "Ġcourse": 919,
      "ped": 920,
      "Ġhimself": 921,
      "ations": 922,
      "eror": 923,
      "Ġhikig": 924,
      "Ġremem": 925,
      "Ġemperor": 926,
      "Ġmar": 927,
      "right": 928,
      "Ġgive": 929,
      "Ġyet": 930,
      "Ġinc": 931,
      "iv": 932,
      "Ġslow": 933,
      "Ġcomple": 934,
      "Ġra": 935,
      "pping": 936,
      "Ġhikigaya": 937,
      "Ġpain": 938,
      "Ġfoll": 939,
      "Ġprob": 940,
      "Ġstop": 941,
      "iet": 942,
      "Ġwork": 943,
      "Ġmother": 944,
      "ans": 945,
      "Ġthese": 946,
      "Ġpull": 947,
      "Ġok": 948,
      "Ġquickly": 949,
      "Ġ.]": 950,
      "Ġhur": 951,
      "Ġass": 952,
      "umb": 953,
      "Ġsense": 954,
      "Ġsle": 955,
      "Ġred": 956,
      "Ġwouldn": 957,
      "Ġste": 958,
      "Ġschool": 959,
      "Ġhome": 960,
      "aha": 961,
      "Ġpri": 962,
      "Ġreturn": 963,
      "ents": 964,
      "Ġprobably": 965,
      "fort": 966,
      "Ġelse": 967,
      "Ġfinally": 968,
      "Ġable": 969,
      "Ġfact": 970,
      "Ġtried": 971,
      "ya": 972,
      "fect": 973,
      "Ġfar": 974,
      "Ġdist": 975,
      "Ġcap": 976,
      "outh": 977,
      "Ġexc": 978,
      "Ġhowever": 979,
      "ided": 980,
      "Ġeveryone": 981,
      "Ġactually": 982,
      "Ġ)": 983,
      "Ġmany": 984,
      "fully": 985,
      "Ġpoint": 986,
      "ized": 987,
      "Ġbelie": 988,
      "Ġmin": 989,
      "ween": 990,
      "ret": 991,
      "Ġslight": 992,
      "Ġbetween": 993,
      "inking": 994,
      "Ġyeah": 995,
      "Ġleast": 996,
      "ired": 997,
      "sing": 998,
      "uri": 999,
      "Ġposs": 1000,
      "ical": 1001,
      "gether": 1002,
      "Ġbre": 1003,
      "Ġstarted": 1004,
      "ces": 1005,
      "Ġsuddenly": 1006,
      "Ġmyself": 1007,
      "ute": 1008,
      "Ġcur": 1009,
      "Ġrun": 1010,
      "Ġexpect": 1011,
      "Ġunc": 1012,
      "Ġmon": 1013,
      "Ġwond": 1014,
      "ual": 1015,
      "Ġfight": 1016,
      "its": 1017,
      "Ġadv": 1018,
      "ition": 1019,
      "Ġsorry": 1020,
      "Ġgre": 1021,
      "ahama": 1022,
      "Ġtogether": 1023,
      "Ġmatter": 1024,
      "Ġlove": 1025,
      "Ġca": 1026,
      "ained": 1027,
      "Ġyuig": 1028,
      "Ġrepl": 1029,
      "Ġthank": 1030,
      "Ġreg": 1031,
      "ten": 1032,
      "Ġmet": 1033,
      "ised": 1034,
      "Ġyuigahama": 1035,
      "Ġph": 1036,
      "Ġ5": 1037,
      "Ġap": 1038,
      "Ġdark": 1039,
      "Ġquestion": 1040,
      "Ġmouth": 1041,
      "Ġlau": 1042,
      "owing": 1043,
      "Ġjo": 1044,
      "ished": 1045,
      "Ġboy": 1046,
      "Ġdiffe": 1047,
      "Ġappe": 1048,
      "ib": 1049,
      "Ġset": 1050,
      "Ġstay": 1051,
      "Ġplay": 1052,
      "Ġuse": 1053,
      "Ġsto": 1054,
      "Ġsn": 1055,
      "Ġfather": 1056,
      "alm": 1057,
      "Ġclose": 1058,
      "Ġhappened": 1059,
      "Ġgetting": 1060,
      "Ġbed": 1061,
      "ically": 1062,
      "Ġinter": 1063,
      "Ġdoesn": 1064,
      "Ġexpl": 1065,
      "Ġ]": 1066,
      "ression": 1067,
      "Ġeye": 1068,
      "Ġmisato": 1069,
      "vers": 1070,
      "Ġbest": 1071,
      "ached": 1072,
      "Ġlat": 1073,
      "Ġform": 1074,
      "Ġdone": 1075,
      "Ġsmiled": 1076,
      "Ġnodded": 1077,
      "Ġwon": 1078,
      "Ġarms": 1079,
      "Ġbad": 1080,
      "Ġokay": 1081,
      "Ġmag": 1082,
      "ither": 1083,
      "ued": 1084,
      "ons": 1085,
      "Ġpower": 1086,
      "ister": 1087,
      "Ġgreat": 1088,
      "Ġthree": 1089,
      "bed": 1090,
      "Ġhaving": 1091,
      "Ġname": 1092,
      "Ġ9": 1093,
      "Ġpa": 1094,
      "ply": 1095,
      "ured": 1096,
      "Ġyukino": 1097,
      "Ġinside": 1098,
      "Ġused": 1099,
      "Ġnear": 1100,
      "Ġyears": 1101,
      "Ġdeep": 1102,
      "Ġslowly": 1103,
      "ange": 1104,
      "Ġplease": 1105,
      "Ġjulianna": 1106,
      "Ġeas": 1107,
      "Ġunderstand": 1108,
      "Ġord": 1109,
      "Ġleave": 1110,
      "Ġcomplete": 1111,
      "Ġcons": 1112,
      "Ġstud": 1113,
      "Ġresp": 1114,
      "Ġfamily": 1115,
      "Ġes": 1116,
      "Ġfing": 1117,
      "Ġwind": 1118,
      "Ġmaking": 1119,
      "ip": 1120,
      "Ġquite": 1121,
      "Ġhell": 1122,
      "ross": 1123,
      "achi": 1124,
      "Ġguess": 1125,
      "Ġcry": 1126,
      "Ġhigh": 1127,
      "Ġinv": 1128,
      "Ġstood": 1129,
      "ertain": 1130,
      "Ġalone": 1131,
      "che": 1132,
      "ama": 1133,
      "ject": 1134,
      "Ġtalk": 1135,
      "ats": 1136,
      "Ġinf": 1137,
      "Ġmem": 1138,
      "Ġwalked": 1139,
      "Ġask": 1140,
      "Ġopened": 1141,
      "Ġter": 1142,
      "ying": 1143,
      "iously": 1144,
      "tered": 1145,
      "Ġchar": 1146,
      "ushed": 1147,
      "Ġacc": 1148,
      "Ġimm": 1149,
      "uke": 1150,
      "Ġclear": 1151,
      "Ġpast": 1152,
      "Ġide": 1153,
      "ors": 1154,
      "ction": 1155,
      "Ġdifferent": 1156,
      "Ġrei": 1157,
      "erial": 1158,
      "Ġvis": 1159,
      "ging": 1160,
      "ts": 1161,
      "Ġseen": 1162,
      "Ġid": 1163,
      "Ġair": 1164,
      "Ġgaz": 1165,
      "cept": 1166,
      "Ġ...\"": 1167,
      "here": 1168,
      "Ġbat": 1169,
      "ild": 1170,
      "Ġblood": 1171,
      "ouch": 1172,
      "Ġclass": 1173,
      "Ġtak": 1174,
      "Ġgen": 1175,
      "Ġexpression": 1176,
      "ouse": 1177,
      "ina": 1178,
      "Ġlist": 1179,
      "Ġrather": 1180,
      "Ġmove": 1181,
      "Ġplan": 1182,
      "Ġquiet": 1183,
      "Ġhalf": 1184,
      "Ġref": 1185,
      "aced": 1186,
      "Ġthinking": 1187,
      "Ġflo": 1188,
      "Ġmeet": 1189,
      "Ġtan": 1190,
      "Ġem": 1191,
      "Ġhon": 1192,
      "ening": 1193,
      "oud": 1194,
      "Ġisn": 1195,
      "iss": 1196,
      "ize": 1197,
      "Ġsho": 1198,
      "ict": 1199,
      "Ġdrag": 1200,
      "Ġtaking": 1201,
      "Ġconc": 1202,
      "Ġsleep": 1203,
      "Ġground": 1204,
      "Ġah": 1205,
      "Ġ4": 1206,
      "Ġheld": 1207,
      "ric": 1208,
      "Ġbig": 1209,
      "Ġkom": 1210,
      "Ġbelieve": 1211,
      "Ġreplied": 1212,
      "ead": 1213,
      "Ġruth": 1214,
      "Ġlater": 1215,
      "Ġfine": 1216,
      "Ġsister": 1217,
      "Ġdire": 1218,
      "Ġkomachi": 1219,
      "Ġfore": 1220,
      "ere": 1221,
      "ility": 1222,
      "aged": 1223,
      "Ġslightly": 1224,
      "Ġtoday": 1225,
      "Ġins": 1226,
      "Ġanswer": 1227,
      "Ġstory": 1228,
      "Ġwrong": 1229,
      "uring": 1230,
      "Ġalong": 1231,
      "Ġtable": 1232,
      "Ġcalled": 1233,
      "Ġlips": 1234,
      "Ġhay": 1235,
      "erv": 1236,
      "ero": 1237,
      "Ġ7": 1238,
      "Ġcoming": 1239,
      "ited": 1240,
      "Ġinstead": 1241,
      "xx": 1242,
      "Ġswe": 1243,
      "ai": 1244,
      "Ġfall": 1245,
      "Ġanyone": 1246,
      "Ġsub": 1247,
      "Ġprin": 1248,
      "Ġdef": 1249,
      "ek": 1250,
      "Ġbrother": 1251,
      "Ġcold": 1252,
      "Ġstre": 1253,
      "Ġhear": 1254,
      "Ġappro": 1255,
      "Ġim": 1256,
      "ined": 1257,
      "uc": 1258,
      "aughter": 1259,
      "Ġ6": 1260,
      "Ġcontinued": 1261,
      "io": 1262,
      "Ġprot": 1263,
      "Ġsuper": 1264,
      "arent": 1265,
      "Ġdays": 1266,
      "Ġran": 1267,
      "Ġ?!": 1268,
      "ike": 1269,
      "Ġdecided": 1270,
      "Ġann": 1271,
      "head": 1272,
      "Ġtalking": 1273,
      "Ġtri": 1274,
      "ular": 1275,
      "Ġstrange": 1276,
      "Ġremember": 1277,
      "edi": 1278,
      "Ġcertain": 1279,
      "Ġsaying": 1280,
      "Ġbreath": 1281,
      "Ġdead": 1282,
      "ings": 1283,
      "Ġhope": 1284,
      "Ġpat": 1285,
      "tty": 1286,
      "cial": 1287,
      "Ġ8": 1288,
      "ene": 1289,
      "Ġkun": 1290,
      "Ġtra": 1291,
      "arr": 1292,
      "icked": 1293,
      "Ġcalm": 1294,
      "Ġzero": 1295,
      "Ġhuman": 1296,
      "Ġed": 1297,
      "Ġacross": 1298,
      "Ġsighed": 1299,
      "Ġeither": 1300,
      "Ġthanks": 1301,
      "iced": 1302,
      "osed": 1303,
      "Ġsoft": 1304,
      "av": 1305,
      "Ġstopped": 1306,
      "Ġbus": 1307,
      "Ġbro": 1308,
      "uko": 1309,
      "Ġcoll": 1310,
      "Ġfell": 1311,
      "uff": 1312,
      "Ġdem": 1313,
      "Ġneeded": 1314,
      "Ġsqu": 1315,
      "Ġleg": 1316,
      "ount": 1317,
      "Ġmiura": 1318,
      "Ġhadn": 1319,
      "Ġhey": 1320,
      "igh": 1321,
      "Ġblack": 1322,
      "aki": 1323,
      "Ġspoke": 1324,
      "Ġtrue": 1325,
      "Ġstared": 1326,
      "haps": 1327,
      "Ġperse": 1328,
      "Ġidea": 1329,
      "Ġpretty": 1330,
      "eth": 1331,
      "to": 1332,
      "Ġperhaps": 1333,
      "ept": 1334,
      "Ġclot": 1335,
      "Ġbes": 1336,
      "Ġlar": 1337,
      "Ġmor": 1338,
      "Ġgrab": 1339,
      "Ġperseus": 1340,
      "ets": 1341,
      "more": 1342,
      "Ġdisc": 1343,
      "Ġmen": 1344,
      "Ġanyway": 1345,
      "joy": 1346,
      "Ġdel": 1347,
      "Ġknight": 1348,
      "Ġer": 1349,
      "gn": 1350,
      "Ġdet": 1351,
      "iling": 1352,
      "Ġfun": 1353,
      "Ġko": 1354,
      "kes": 1355,
      "Ġoutside": 1356,
      "Ġattention": 1357,
      "Ġfour": 1358,
      "Ġtanya": 1359,
      "Ġstep": 1360,
      "rought": 1361,
      "ush": 1362,
      "Ġenjoy": 1363,
      "Ġstrong": 1364,
      "Ġchest": 1365,
      "Ġcut": 1366,
      "Ġforward": 1367,
      "Ġimmedi": 1368,
      "ident": 1369,
      "Ġtimes": 1370,
      "Ġshow": 1371,
      "Ġsy": 1372,
      "Ġwall": 1373,
      "Ġbrought": 1374,
      "uation": 1375,
      "Ġiss": 1376,
      "lled": 1377,
      "Ġnat": 1378,
      "ru": 1379,
      "blem": 1380,
      "Ġ**": 1381,
      "Ġhurt": 1382,
      "Ġrep": 1383,
      "Ġhit": 1384,
      "Ġtre": 1385,
      "ung": 1386,
      "Ġbreak": 1387,
      "Ġless": 1388,
      "Ġori": 1389,
      "mit": 1390,
      "Ġfig": 1391,
      "Ġosc": 1392,
      "antly": 1393,
      "Ġprince": 1394,
      "Ġcompletely": 1395,
      "Ġext": 1396,
      "Ġlooks": 1397,
      "erest": 1398,
      "Ġgaze": 1399,
      "Ġoscar": 1400,
      "olog": 1401,
      "tend": 1402,
      "Ġlost": 1403,
      "Ġfur": 1404,
      "Ġwhole": 1405,
      "Ġchildren": 1406,
      "Ġtem": 1407,
      "Ġpulled": 1408,
      "aining": 1409,
      "ased": 1410,
      "Ġshort": 1411,
      "Ġtop": 1412,
      "Ġhappy": 1413,
      "Ġclub": 1414,
      "idd": 1415,
      "Ġglan": 1416,
      "Ġcount": 1417,
      "Ġgrand": 1418,
      "app": 1419,
      "Ġopp": 1420,
      "assed": 1421,
      "aut": 1422,
      "aking": 1423,
      "Ġproblem": 1424,
      "Ġdou": 1425,
      "iness": 1426,
      "Ġdie": 1427,
      "uno": 1428,
      "Ġstanding": 1429,
      "ank": 1430,
      "Ġshoulder": 1431,
      "Ġnerv": 1432,
      "Ġprincess": 1433,
      "me": 1434,
      "Ġunit": 1435,
      "Ġemb": 1436,
      "Ġconsid": 1437,
      "ove": 1438,
      "Ġpur": 1439,
      "Ġcaught": 1440,
      "Ġwindow": 1441,
      "Ġdro": 1442,
      "Ġentire": 1443,
      "Ġsir": 1444,
      "Ġmiss": 1445,
      "Ġhouse": 1446,
      "Ġkept": 1447,
      "Ġdeath": 1448,
      "Ġlea": 1449,
      "Ġinterest": 1450,
      "Ġmeant": 1451,
      "Ġstra": 1452,
      "Ġcat": 1453,
      "Ġcol": 1454,
      "Ġshook": 1455,
      "Ġimmediately": 1456,
      "room": 1457,
      "gin": 1458,
      "Ġsituation": 1459,
      "Ġfeet": 1460,
      "Ġign": 1461,
      "Ġwaiting": 1462,
      "ken": 1463,
      "Ġsurprised": 1464,
      "Ġothers": 1465,
      "Ġ-\"": 1466,
      "ored": 1467,
      "Ġwater": 1468,
      "Ġago": 1469,
      "ef": 1470,
      "Ġcra": 1471,
      "Ġexact": 1472,
      "Ġbeaut": 1473,
      "Ġhonest": 1474,
      "Ġfloor": 1475,
      "Ġadvance": 1476,
      "Ġdri": 1477,
      "Ġfull": 1478,
      "Ġpossible": 1479,
      "aster": 1480,
      "Ġfood": 1481,
      "ides": 1482,
      "Ġsimply": 1483,
      "Ġsigh": 1484,
      "Ġprom": 1485,
      "med": 1486,
      "Ġdesp": 1487,
      "Ġ***": 1488,
      "Ġhuh": 1489,
      "Ġnice": 1490,
      "Ġgone": 1491,
      "Ġclosed": 1492,
      "ari": 1493,
      "Ġseeing": 1494,
      "Ġbecame": 1495,
      "als": 1496,
      "Ġonto": 1497,
      "Ġcase": 1498,
      "Ġwatched": 1499,
      "Ġhour": 1500,
      "Ġwhatever": 1501,
      "Ġyear": 1502,
      "Ġchange": 1503,
      "Ġholding": 1504,
      "Ġraised": 1505,
      "Ġnorm": 1506,
      "ates": 1507,
      "Ġsent": 1508,
      "aru": 1509,
      "Ġserv": 1510,
      "air": 1511,
      "Ġhor": 1512,
      "Ġwhite": 1513,
      "Ġbecome": 1514,
      "ell": 1515,
      "Ġnoticed": 1516,
      "Ġsilence": 1517,
      "ien": 1518,
      "Ġrequ": 1519,
      "Ġword": 1520,
      "Ġgriff": 1521,
      "Ġbegin": 1522,
      "iew": 1523,
      "Ġteres": 1524,
      "Ġgriffith": 1525,
      "Ġteresa": 1526,
      "Ġmess": 1527,
      "inted": 1528,
      "bo": 1529,
      "ories": 1530,
      "Ġyui": 1531,
      "ense": 1532,
      "Ġsitting": 1533,
      "Ġwarm": 1534,
      "Ġcommand": 1535,
      "Ġfut": 1536,
      "Ġdisapp": 1537,
      "Ġtight": 1538,
      "Ġharuno": 1539,
      "rew": 1540,
      "vi": 1541,
      "gg": 1542,
      "Ġneck": 1543,
      "Ġfree": 1544,
      "Ġreached": 1545,
      "Ġfingers": 1546,
      "Ġmoved": 1547,
      "Ġworry": 1548,
      "Ġyum": 1549,
      "Ġkid": 1550,
      "Ġpos": 1551,
      "ously": 1552,
      "iko": 1553,
      "Ġwhis": 1554,
      "chem": 1555,
      "Ġalchem": 1556,
      "Ġbri": 1557,
      "Ġlaugh": 1558,
      "cing": 1559,
      "Ġtaken": 1560,
      "Ġtears": 1561,
      "Ġbring": 1562,
      "Ġtone": 1563,
      "Ġgrin": 1564,
      "aim": 1565,
      "vious": 1566,
      "Ġmain": 1567,
      "Ġconvers": 1568,
      "ement": 1569,
      "Ġ?]": 1570,
      "Ġlean": 1571,
      "Ġwalking": 1572,
      "Ġmorning": 1573,
      "anger": 1574,
      "Ġfire": 1575,
      "Ġimperial": 1576,
      "iful": 1577,
      "ius": 1578,
      "uki": 1579,
      "Ġeat": 1580,
      "Ġsing": 1581,
      "Ġupon": 1582,
      "Ġcast": 1583,
      "ressed": 1584,
      "Ġsess": 1585,
      "hip": 1586,
      "go": 1587,
      "Ġind": 1588,
      "Ġsword": 1589,
      "yo": 1590,
      "Ġseems": 1591,
      "sit": 1592,
      "Ġchance": 1593,
      "Ġdoub": 1594,
      "Ġsort": 1595,
      "Ġpass": 1596,
      "cc": 1597,
      "ash": 1598,
      "Ġlead": 1599,
      "Ġlow": 1600,
      "Ġangel": 1601,
      "Ġsever": 1602,
      "Ġced": 1603,
      "Ġspecial": 1604,
      "Ġbattle": 1605,
      "ively": 1606,
      "Ġclare": 1607,
      "ude": 1608,
      "Ġav": 1609,
      "Ġcedric": 1610,
      "where": 1611,
      "Ġprotect": 1612,
      "Ġimport": 1613,
      "Ġthoughts": 1614,
      "Ġdaughter": 1615,
      "use": 1616,
      "Ġsus": 1617,
      "Ġdra": 1618,
      "Ġabs": 1619,
      "otion": 1620,
      "Ġcomfort": 1621,
      "ital": 1622,
      "Ġbuild": 1623,
      "oney": 1624,
      "Ġgod": 1625,
      "unch": 1626,
      "Ġlate": 1627,
      "ump": 1628,
      "ster": 1629,
      "Ġfollowed": 1630,
      "Ġx": 1631,
      "Ġforg": 1632,
      "Ġfac": 1633,
      "Ġsel": 1634,
      "ures": 1635,
      "Ġlonger": 1636,
      "Ġ$": 1637,
      "Ġguys": 1638,
      "Ġanswered": 1639,
      "Ġbare": 1640,
      "Ġexpected": 1641,
      "Ġduring": 1642,
      "Ġloud": 1643,
      "Ġdeal": 1644,
      "Ġphone": 1645,
      "Ġfive": 1646,
      "...": 1647,
      "Ġarri": 1648,
      "ugged": 1649,
      "oun": 1650,
      "Ġele": 1651,
      "Ġgiven": 1652,
      "uz": 1653,
      "Ġstraight": 1654,
      "Ġfav": 1655,
      "Ġrealized": 1656,
      "Ġlarge": 1657,
      "utes": 1658,
      "Ġexper": 1659,
      "Ġka": 1660,
      "Ġsign": 1661,
      "fic": 1662,
      "Ġsensei": 1663,
      "Ġexactly": 1664,
      "Ġperfect": 1665,
      "Ġevent": 1666,
      "ria": 1667,
      "Ġscream": 1668,
      "Ġstaring": 1669,
      "ames": 1670,
      "Ġnum": 1671,
      "Ġcity": 1672,
      "Ġshop": 1673,
      "Ġtruth": 1674,
      "cy": 1675,
      "Ġcoun": 1676,
      "Ġmention": 1677,
      "Ġappeared": 1678,
      "Ġwatching": 1679,
      "Ġdream": 1680,
      "Ġrece": 1681,
      "Ġpol": 1682,
      "Ġgirls": 1683,
      "cked": 1684,
      "Ġshr": 1685,
      "Ġfill": 1686,
      "Ġlelouch": 1687,
      "Ġturning": 1688,
      "eks": 1689,
      "Ġmanaged": 1690,
      "Ġorigin": 1691,
      "Ġpie": 1692,
      "Ġwin": 1693,
      "Ġmagic": 1694,
      "Ġseveral": 1695,
      "Ġsad": 1696,
      "Ġyourself": 1697,
      "Ġcloser": 1698,
      "Ġlear": 1699,
      "ines": 1700,
      "rit": 1701,
      "Ġmiria": 1702,
      "Ġsecret": 1703,
      "Ġwalk": 1704,
      "Ġsold": 1705,
      "Ġconversation": 1706,
      "Ġadd": 1707,
      "Ġfear": 1708,
      "Ġgener": 1709,
      "Ġdest": 1710,
      "bing": 1711,
      "Ġblue": 1712,
      "Ġprep": 1713,
      "Ġesc": 1714,
      "Ġfrown": 1715,
      "ters": 1716,
      "Ġwi": 1717,
      "ail": 1718,
      "Ġspeak": 1719,
      "Ġhappen": 1720,
      "Ġwonder": 1721,
      "Ġyumiko": 1722,
      "Ġgrou": 1723,
      "Ġminutes": 1724,
      "Ġalright": 1725,
      "Ġmik": 1726,
      "Ġsessh": 1727,
      "Ġbeautiful": 1728,
      "Ġnar": 1729,
      "Ġreturned": 1730,
      "sel": 1731,
      "Ġdamn": 1732,
      "Ġapart": 1733,
      "Ġearl": 1734,
      "ili": 1735,
      "ghed": 1736,
      "ield": 1737,
      "Ġimag": 1738,
      "Ġsurprise": 1739,
      "ock": 1740,
      "Ġleo": 1741,
      "Ġsupposed": 1742,
      "Ġmut": 1743,
      "Ġhayama": 1744,
      "Ġgiving": 1745,
      "Ġcarius": 1746,
      "Ġready": 1747,
      "Ġstup": 1748,
      "Ġinform": 1749,
      "Ġattack": 1750,
      "Ġsight": 1751,
      "Ġweak": 1752,
      "ris": 1753,
      "fted": 1754,
      "ign": 1755,
      "by": 1756,
      "Ġrain": 1757,
      "Ġty": 1758,
      "Ġleaving": 1759,
      "Ġguy": 1760,
      "Ġdespite": 1761,
      "umbled": 1762,
      "Ġduke": 1763,
      "ern": 1764,
      "rats": 1765,
      "ii": 1766,
      "ities": 1767,
      "Ġtrou": 1768,
      "Ġ.'": 1769,
      "Ġland": 1770,
      "Ġclothes": 1771,
      "Ġshout": 1772,
      "Ġwatch": 1773,
      "Ġhesit": 1774,
      "Ġstupid": 1775,
      "Ġmoney": 1776,
      "Ġanymore": 1777,
      "Ġwithin": 1778,
      "Ġguard": 1779,
      "oid": 1780,
      "Ġpil": 1781,
      "Ġrelie": 1782,
      "nding": 1783,
      "Ġir": 1784,
      "Ġthir": 1785,
      "Ġlive": 1786,
      "Ġdirect": 1787,
      "Ġsun": 1788,
      "Ġchapters": 1789,
      "ze": 1790,
      "Ġrunning": 1791,
      "Ġheav": 1792,
      "Ġmaj": 1793,
      "Ġchanged": 1794,
      "Ġten": 1795,
      "ake": 1796,
      "Ġannoy": 1797,
      "Ġfist": 1798,
      "Ġforget": 1799,
      "Ġtou": 1800,
      "Ġcontro": 1801,
      "Ġcre": 1802,
      "Ġ..": 1803,
      "Ġbar": 1804,
      "Ġorder": 1805,
      "Ġfuture": 1806,
      "Ġhop": 1807,
      "Ġdragon": 1808,
      "Ġdev": 1809,
      "Ġself": 1810,
      "Ġalchemy": 1811,
      "ee": 1812,
      "though": 1813,
      "Ġsingle": 1814,
      "Ġglass": 1815,
      "Ġfoc": 1816,
      "Ġreading": 1817,
      "Ġpap": 1818,
      "Ġalthough": 1819,
      "ants": 1820,
      "Ġsna": 1821,
      "ax": 1822,
      "erg": 1823,
      "Ġcuri": 1824,
      "Ġshut": 1825,
      "ows": 1826,
      "Ġimportant": 1827,
      "Ġskin": 1828,
      "ger": 1829,
      "Ġearlier": 1830,
      "Ġhall": 1831,
      "Ġry": 1832,
      "Ġrememb": 1833,
      "ocked": 1834,
      "Ġdoll": 1835,
      "ience": 1836,
      "Ġglanced": 1837,
      "Ġpartic": 1838,
      "Ġwish": 1839,
      "usion": 1840,
      "hh": 1841,
      "Ġnumber": 1842,
      "Ġcompl": 1843,
      "Ġpilot": 1844,
      "rist": 1845,
      "Ġsou": 1846,
      "Ġworried": 1847,
      "Ġbook": 1848,
      "Ġgame": 1849,
      "Ġpassed": 1850,
      "Ġangry": 1851,
      "Ġrev": 1852,
      "Ġ\"...": 1853,
      "ny": 1854,
      "Ġapolog": 1855,
      "amp": 1856,
      "raid": 1857,
      "Ġshoulders": 1858,
      "selves": 1859,
      "ushing": 1860,
      "Ġfurther": 1861,
      "how": 1862,
      "Ġlaughed": 1863,
      "Ġsupport": 1864,
      "Ġbright": 1865,
      "action": 1866,
      "Ġmonth": 1867,
      "Ġliving": 1868,
      "Ġstri": 1869,
      "Ġbag": 1870,
      "using": 1871,
      "Ġ''": 1872,
      "Ġshar": 1873,
      "Ġseat": 1874,
      "Ġforce": 1875,
      "Ġgroup": 1876,
      "Ġrub": 1877,
      "Ġocc": 1878,
      "Ġ*": 1879,
      "acked": 1880,
      "Ġmakes": 1881,
      "Ġsuperion": 1882,
      "Ġproper": 1883,
      "Ġthro": 1884,
      "Ġattem": 1885,
      "Ġconsider": 1886,
      "inked": 1887,
      "Ġtow": 1888,
      "Ġdin": 1889,
      "Ġpar": 1890,
      "unt": 1891,
      "Ġparent": 1892,
      "Ġmed": 1893,
      "orn": 1894,
      "Ġknown": 1895,
      "Ġgrabbed": 1896,
      "Ġlay": 1897,
      "Ġdanger": 1898,
      "Ġcaptain": 1899,
      "Ġafraid": 1900,
      "Ġichi": 1901,
      "Ġfavor": 1902,
      "Ġtier": 1903,
      "itely": 1904,
      "Ġjob": 1905,
      "Ġembarr": 1906,
      "Ġaren": 1907,
      "Ġtrans": 1908,
      "Ġlegs": 1909,
      "Ġkilled": 1910,
      "Ġthr": 1911,
      "ori": 1912,
      "Ġfoot": 1913,
      "cially": 1914,
      "Ġquietly": 1915,
      "Ġje": 1916,
      "Ġbarely": 1917,
      "Ġline": 1918,
      "Ġusing": 1919,
      "read": 1920,
      "Ġadmit": 1921,
      "Ġwrit": 1922,
      "Ġmoving": 1923,
      "Ġdied": 1924,
      "Ġtrust": 1925,
      "Ġsomehow": 1926,
      "now": 1927,
      "Ġremembered": 1928,
      "Ġspot": 1929,
      "Ġlady": 1930,
      "Ġfigure": 1931,
      "Ġlie": 1932,
      "Ġcreat": 1933,
      "Ġhirats": 1934,
      "iliar": 1935,
      "Ġbur": 1936,
      "Ġshot": 1937,
      "vered": 1938,
      "Ġsays": 1939,
      "Ġtea": 1940,
      "Ġhiratsuka": 1941,
      "Ġcurrent": 1942,
      "Ġsmir": 1943,
      "Ġnovel": 1944,
      "Ġbir": 1945,
      "isted": 1946,
      "onse": 1947,
      "tic": 1948,
      "Ġmist": 1949,
      "Ġblinked": 1950,
      "Ġchair": 1951,
      "Ġsafe": 1952,
      "Ġmur": 1953,
      "Ġprof": 1954,
      "Ġdep": 1955,
      "Ġstuff": 1956,
      "Ġfinished": 1957,
      "Ġcent": 1958,
      "Ġhot": 1959,
      "Ġknowing": 1960,
      "Ġpal": 1961,
      "Ġnormal": 1962,
      "Ġabove": 1963,
      "Ġsometim": 1964,
      "Ġson": 1965,
      "Ġrequest": 1966,
      "Ġgrow": 1967,
      "Ġmemories": 1968,
      "ments": 1969,
      "hiki": 1970,
      "iddle": 1971,
      "Ġeff": 1972,
      "Ġpay": 1973,
      "Ġweren": 1974,
      "Ġichigo": 1975,
      "Ġcontrol": 1976,
      "Ġones": 1977,
      "Ġdefin": 1978,
      "Ġposition": 1979,
      "Ġfi": 1980,
      "Ġcorner": 1981,
      "Ġresponse": 1982,
      "pered": 1983,
      "Ġbas": 1984,
      "Ġunl": 1985,
      "Ġrose": 1986,
      "emy": 1987,
      "Ġlevel": 1988,
      "Ġharry": 1989,
      "lic": 1990,
      "Ġsky": 1991,
      "Ġespe": 1992,
      "Ġmus": 1993,
      "unately": 1994,
      "Ġusual": 1995,
      "ugg": 1996,
      "Ġkaw": 1997,
      "ror": 1998,
      "Ġrelations": 1999,
      "Ġtemple": 2000,
      "Ġchuck": 2001,
      "ient": 2002,
      "maru": 2003,
      "Ġtom": 2004,
      "Ġill": 2005,
      "Ġespecially": 2006,
      "ok": 2007,
      "riage": 2008,
      "Ġdiffic": 2009,
      "Ġinde": 2010,
      "Ġserious": 2011,
      "rat": 2012,
      "Ġheal": 2013,
      "Ġsol": 2014,
      "rt": 2015,
      "ffe": 2016,
      "ingly": 2017,
      "Ġisshiki": 2018,
      "Ġcute": 2019,
      "ches": 2020,
      "Ġdefe": 2021,
      "ilt": 2022,
      "Ġtreat": 2023,
      "Ġgold": 2024,
      "suki": 2025,
      "irc": 2026,
      "Ġdoubt": 2027,
      "ashed": 2028,
      "Ġuh": 2029,
      "Ġmiddle": 2030,
      "ibly": 2031,
      "Ġpushed": 2032,
      "Ġsilent": 2033,
      "Ġeasy": 2034,
      "Ġcheck": 2035,
      "Ġ$,": 2036,
      "old": 2037,
      "oumaru": 2038,
      "Ġappear": 2039,
      "Ġthroat": 2040,
      "Ġburn": 2041,
      "zy": 2042,
      "ins": 2043,
      "Ġsimple": 2044,
      "uto": 2045,
      "Ġwarri": 2046,
      "ific": 2047,
      "Ġparents": 2048,
      "Ġsenp": 2049,
      "Ġdistance": 2050,
      "Ġstom": 2051,
      "Ġtired": 2052,
      "body": 2053,
      "Ġbuy": 2054,
      "Ġmeans": 2055,
      "Ġhaven": 2056,
      "Ġitself": 2057,
      "Ġcarefully": 2058,
      "ding": 2059,
      "Ġforced": 2060,
      "cha": 2061,
      "Ġrits": 2062,
      "Ġeventually": 2063,
      "Ġglad": 2064,
      "oring": 2065,
      "Ġremind": 2066,
      "Ġrid": 2067,
      "Ġsenpai": 2068,
      "aa": 2069,
      "Ġfinger": 2070,
      "Ġwound": 2071,
      "Ġryuko": 2072,
      "Ġmach": 2073,
      "Ġplaced": 2074,
      "Ġwomen": 2075,
      "abeth": 2076,
      "Ġhate": 2077,
      "Ġparty": 2078,
      "Ġstepped": 2079,
      "Ġstreng": 2080,
      "tt": 2081,
      "Ġray": 2082,
      "Ġeng": 2083,
      "aching": 2084,
      "Ġstat": 2085,
      "Ġeliz": 2086,
      "ilar": 2087,
      "Ġcompan": 2088,
      "Ġsometimes": 2089,
      "icking": 2090,
      "Ġeva": 2091,
      "Ġreci": 2092,
      "Ġelizabeth": 2093,
      "Ġhiro": 2094,
      "Ġcirc": 2095,
      "Ġhours": 2096,
      "Ġsimilar": 2097,
      "ought": 2098,
      "Ġpersonal": 2099,
      "Ġgently": 2100,
      "aint": 2101,
      "Ġdress": 2102,
      "uly": 2103,
      "Ġsesshoumaru": 2104,
      "Ġfamiliar": 2105,
      "Ġluck": 2106,
      "Ġoriginal": 2107,
      "Ġmass": 2108,
      "Ġce": 2109,
      "Ġritsuko": 2110,
      "ms": 2111,
      "uct": 2112,
      "Ġasking": 2113,
      "Ġblade": 2114,
      "Ġsuc": 2115,
      "tern": 2116,
      "Ġbesides": 2117,
      "Ġrespond": 2118,
      "Ġpost": 2119,
      "Ġfilled": 2120,
      "Ġdraw": 2121,
      "Ġbuilding": 2122,
      "Ġpot": 2123,
      "Ġcheek": 2124,
      "Ġempty": 2125,
      "Ġnotice": 2126,
      "hered": 2127,
      "umped": 2128,
      "Ġeren": 2129,
      "Ġchoice": 2130,
      "Ġmine": 2131,
      "Ġdirection": 2132,
      "Ġpress": 2133,
      "Ġcastle": 2134,
      "Ġbusiness": 2135,
      "Ġnearly": 2136,
      "Ġfort": 2137,
      "Ġpresent": 2138,
      "ming": 2139,
      "hood": 2140,
      "Ġhuge": 2141,
      "Ġur": 2142,
      "Ġavoid": 2143,
      "kward": 2144,
      "Ġsmiling": 2145,
      "pic": 2146,
      "Ġawkward": 2147,
      "Ġcharac": 2148,
      "Ġwearing": 2149,
      "Ġbrief": 2150,
      "Ġfast": 2151,
      "Ġwhispered": 2152,
      "ination": 2153,
      "Ġclean": 2154,
      "Ġtar": 2155,
      "ogn": 2156,
      "Ġhy": 2157,
      "Ġterri": 2158,
      "Ġweap": 2159,
      "Ġeasily": 2160,
      "Ġentered": 2161,
      "izing": 2162,
      "lling": 2163,
      "Ġwra": 2164,
      "Ġdefinitely": 2165,
      "Ġparticular": 2166,
      "Ġpointed": 2167,
      "Ġshouldn": 2168,
      "Ġpract": 2169,
      "Ġla": 2170,
      "Ġbeside": 2171,
      "Ġfollow": 2172,
      "of": 2173,
      "Ġden": 2174,
      "Ġanger": 2175,
      "Ġreve": 2176,
      "Ġmil": 2177,
      "Ġaccept": 2178,
      "Ġagre": 2179,
      "Ġnone": 2180,
      "oth": 2181,
      "ime": 2182,
      "Ġexist": 2183,
      "Ġcouple": 2184,
      "Ġscre": 2185,
      "Ġblank": 2186,
      "Ġwhether": 2187,
      "Ġcertainly": 2188,
      "oming": 2189,
      "Ġdifficult": 2190,
      "Ġtruly": 2191,
      "orrow": 2192,
      "Ġbox": 2193,
      "ative": 2194,
      "ization": 2195,
      "Ġbeast": 2196,
      "ko": 2197,
      "Ġhero": 2198,
      "Ġclearly": 2199,
      "Ġworking": 2200,
      "Ġage": 2201,
      "Ġsens": 2202,
      "orted": 2203,
      "Ġteeth": 2204,
      "Ġwondered": 2205,
      "gan": 2206,
      "Ġdamien": 2207,
      "Ġthreat": 2208,
      "Ġrecogn": 2209,
      "Ġstrength": 2210,
      "Ġknows": 2211,
      "Ġeyeb": 2212,
      "Ġtest": 2213,
      "Ġkiss": 2214,
      "ami": 2215,
      "Ġseconds": 2216,
      "Ġmuttered": 2217,
      "Ġstudent": 2218,
      "Ġinformation": 2219,
      "Ġhung": 2220,
      "Ġdisappe": 2221,
      "Ġthemselves": 2222,
      "Ġleaned": 2223,
      "Ġearly": 2224,
      "Ġeffort": 2225,
      "Ġoffic": 2226,
      "Ġhang": 2227,
      "let": 2228,
      "Ġsave": 2229,
      "Ġcab": 2230,
      "Ġmeeting": 2231,
      "Ġcrying": 2232,
      "Ġnatur": 2233,
      "Ġwide": 2234,
      "Ġobs": 2235,
      "Ġtit": 2236,
      "osp": 2237,
      "Ġpalace": 2238,
      "Ġarrived": 2239,
      "Ġcover": 2240,
      "ipped": 2241,
      "Ġrecei": 2242,
      "Ġadded": 2243,
      "Ġjuliana": 2244,
      "Ġmaid": 2245,
      "Ġconfused": 2246,
      "pted": 2247,
      "ony": 2248,
      "Ġcapital": 2249,
      "Ġeyebrow": 2250,
      "iqu": 2251,
      "Ġapproached": 2252,
      "Ġhaired": 2253,
      "Ġyester": 2254,
      "Ġarea": 2255,
      "Ġitem": 2256,
      "Ġyesterday": 2257,
      "Ġregard": 2258,
      "Ġexcept": 2259,
      "Ġworse": 2260,
      "Ġweek": 2261,
      "Ġshit": 2262,
      "ird": 2263,
      "Ġ?!\"": 2264,
      "Ġusually": 2265,
      "Ġfeelings": 2266,
      "Ġfighting": 2267,
      "Ġforgot": 2268,
      "iff": 2269,
      "Ġknights": 2270,
      "Ġfair": 2271,
      "Ġing": 2272,
      "Ġscreen": 2273,
      "Ġtouch": 2274,
      "Ġpop": 2275,
      "Ġenc": 2276,
      "Ġpicked": 2277,
      "Ġthird": 2278,
      "Ġfle": 2279,
      "Ġmir": 2280,
      "Ġpun": 2281,
      "Ġrele": 2282,
      "Ġspr": 2283,
      "Ġextra": 2284,
      "Ġkit": 2285,
      "ision": 2286,
      "Ġgas": 2287,
      "Ġtrain": 2288,
      "Ġcountry": 2289,
      "Ġspace": 2290,
      "Ġsweet": 2291,
      "Ġcros": 2292,
      "Ġgreet": 2293,
      "Ġspent": 2294,
      "Ġstomach": 2295,
      "Ġspeaking": 2296,
      "asure": 2297,
      "Ġmaster": 2298,
      "Ġmer": 2299,
      "Ġidi": 2300,
      "Ġbene": 2301,
      "Ġrum": 2302,
      "Ġweird": 2303,
      "Ġtomorrow": 2304,
      "Ġgreen": 2305,
      "ountain": 2306,
      "Ġball": 2307,
      "Ġended": 2308,
      "Ġtast": 2309,
      "Ġapparent": 2310,
      "Ġreach": 2311,
      "stem": 2312,
      "Ġreveal": 2313,
      "Ġrelationship": 2314,
      "fi": 2315,
      "Ġchaps": 2316,
      "Ġmajor": 2317,
      "Ġcri": 2318,
      "Ġsuspic": 2319,
      "Ġgeneral": 2320,
      "Ġworth": 2321,
      "Ġempire": 2322,
      "Ġsumm": 2323,
      "Ġfield": 2324,
      "mond": 2325,
      "Ġwid": 2326,
      "Ġsystem": 2327,
      "ages": 2328,
      "Ġdinner": 2329,
      "Ġune": 2330,
      "omfort": 2331,
      "Ġthrow": 2332,
      "een": 2333,
      "Ġgrace": 2334,
      "Ġhide": 2335,
      "ape": 2336,
      "Ġshouted": 2337,
      "Ġmad": 2338,
      "Ġgun": 2339,
      "Ġart": 2340,
      "Ġshrugged": 2341,
      "Ġdesk": 2342,
      "Ġhmm": 2343,
      "Ġconv": 2344,
      "form": 2345,
      "pected": 2346,
      "ffect": 2347,
      "Ġsurround": 2348,
      "Ġpen": 2349,
      "Ġblond": 2350,
      "Ġidiot": 2351,
      "Ġfre": 2352,
      "Ġarg": 2353,
      "Ġnaruto": 2354,
      "Ġnon": 2355,
      "Ġpressed": 2356,
      "Ġbroken": 2357,
      "Ġik": 2358,
      "Ġheavy": 2359,
      "onna": 2360,
      "Ġamong": 2361,
      "od": 2362,
      "Ġban": 2363,
      "Ġseriously": 2364,
      "Ġlikely": 2365,
      "Ġfinal": 2366,
      "Ġtelling": 2367,
      "Ġpick": 2368,
      "Ġraymond": 2369,
      "Ġmere": 2370,
      "Ġstone": 2371,
      "Ġpair": 2372,
      "Ġfu": 2373,
      "Ġcontact": 2374,
      "pose": 2375,
      "uss": 2376,
      "Ġpriest": 2377,
      "Ġsoftly": 2378,
      "Ġreply": 2379,
      "ior": 2380,
      "Ġdisg": 2381,
      "Ġdeser": 2382,
      "Ġshock": 2383,
      "Ġenerg": 2384,
      "Ġkag": 2385,
      "ata": 2386,
      "Ġton": 2387,
      "Ġhonestly": 2388,
      "Ġsear": 2389,
      "Ġliked": 2390,
      "Ġconst": 2391,
      "idence": 2392,
      "Ġdrink": 2393,
      "Ġfix": 2394,
      "ability": 2395,
      "rence": 2396,
      "ceed": 2397,
      "Ġcommander": 2398,
      "asaki": 2399,
      "Ġru": 2400,
      "acking": 2401,
      "Ġ:/": 2402,
      "Ġcoo": 2403,
      "Ġpiece": 2404,
      "Ġenemy": 2405,
      "Ġspike": 2406,
      "Ġaware": 2407,
      "Ġhtt": 2408,
      "Ġtrouble": 2409,
      "Ġ://": 2410,
      "Ġcheeks": 2411,
      "Ġeffect": 2412,
      "Ġstore": 2413,
      "ctor": 2414,
      "Ġoften": 2415,
      "Ġpan": 2416,
      "Ġsatsuki": 2417,
      "Ġalive": 2418,
      "Ġjack": 2419,
      "Ġnews": 2420,
      "Ġpock": 2421,
      "Ġcabin": 2422,
      "Ġskill": 2423,
      "Ġdue": 2424,
      "Ġpeace": 2425,
      "Ġloc": 2426,
      "rect": 2427,
      "airs": 2428,
      "Ġgro": 2429,
      "Ġorgan": 2430,
      "Ġhttps": 2431,
      "Ġstrugg": 2432,
      "Ġund": 2433,
      "Ġdemon": 2434,
      "Ġgonna": 2435,
      "Ġbeginning": 2436,
      "Ġsomewhere": 2437,
      "Ġteac": 2438,
      "Ġclen": 2439,
      "Ġnervous": 2440,
      "Ġtong": 2441,
      "Ġahead": 2442,
      "asa": 2443,
      "Ġhayato": 2444,
      "acing": 2445,
      "Ġpresence": 2446,
      "ices": 2447,
      "Ġremained": 2448,
      "ics": 2449,
      "Ġletting": 2450,
      "Ġolder": 2451,
      "Ġrelax": 2452,
      "Ġtype": 2453,
      "Ġda": 2454,
      "Ġbroke": 2455,
      "Ġassum": 2456,
      "Ġpath": 2457,
      "Ġheaded": 2458,
      "Ġmoments": 2459,
      "iers": 2460,
      "Ġrelief": 2461,
      "Ġcas": 2462,
      "Ġrepe": 2463,
      "not": 2464,
      "Ġkofi": 2465,
      "Ġenergy": 2466,
      "Ġbother": 2467,
      "Ġdestro": 2468,
      "Ġcoffe": 2469,
      "Ġwife": 2470,
      "Ġcovered": 2471,
      "yal": 2472,
      "Ġsounds": 2473,
      "Ġstudents": 2474,
      "Ġunf": 2475,
      "Ġscared": 2476,
      "Ġking": 2477,
      "Ġoffe": 2478,
      "Ġplaying": 2479,
      "Ġmonths": 2480,
      "Ġmemory": 2481,
      "Ġquestions": 2482,
      "inct": 2483,
      "ui": 2484,
      "unk": 2485,
      "Ġtall": 2486,
      "Ġsugg": 2487,
      "Ġsend": 2488,
      "Ġsuggest": 2489,
      "Ġlad": 2490,
      "Ġgrew": 2491,
      "Ġpict": 2492,
      "Ġears": 2493,
      "Ġchildhood": 2494,
      "Ġcomb": 2495,
      "ale": 2496,
      "Ġcarry": 2497,
      "Ġut": 2498,
      "Ġcond": 2499,
      "Ġlord": 2500,
      "Ġview": 2501,
      "Ġcoffee": 2502,
      "Ġhearing": 2503,
      "Ġloved": 2504,
      "Ġkawasaki": 2505,
      "Ġteam": 2506,
      "Ġnote": 2507,
      "viously": 2508,
      "Ġlying": 2509,
      "Ġodd": 2510,
      "Ġcomes": 2511,
      "Ġhikki": 2512,
      "Ġappre": 2513,
      "Ġimposs": 2514,
      "Ġ~": 2515,
      "Ġtower": 2516,
      "Ġprocess": 2517,
      "Ġfollowing": 2518,
      "Ġfrowned": 2519,
      "Ġsuff": 2520,
      "Ġconn": 2521,
      "Ġbeat": 2522,
      "Ġscene": 2523,
      "Ġdesper": 2524,
      "Ġalice": 2525,
      "set": 2526,
      "Ġglance": 2527,
      "igg": 2528,
      "Ġbirth": 2529,
      "Ġmr": 2530,
      "Ġrecall": 2531,
      "Ġobvious": 2532,
      "hel": 2533,
      "Ġwants": 2534,
      "bles": 2535,
      "Ġunlike": 2536,
      "Ġcool": 2537,
      "Ġsilver": 2538,
      "oon": 2539,
      "Ġwaited": 2540,
      "ified": 2541,
      "Ġphys": 2542,
      "olute": 2543,
      "arth": 2544,
      "Ġpretend": 2545,
      "Ġconfess": 2546,
      "Ġeating": 2547,
      "Ġhat": 2548,
      "Ġtoward": 2549,
      "Ġcontinue": 2550,
      "Ġworked": 2551,
      "Ġida": 2552,
      "Ġcarriage": 2553,
      "Ġmaterial": 2554,
      "cil": 2555,
      "Ġts": 2556,
      "Ġhelped": 2557,
      "Ġshad": 2558,
      "lt": 2559,
      "Ġlisten": 2560,
      "ues": 2561,
      "Ġshirt": 2562,
      "Ġna": 2563,
      "Ġwit": 2564,
      "ucking": 2565,
      "enty": 2566,
      "Ġdad": 2567,
      "Ġgotten": 2568,
      "Ġaside": 2569,
      "Ġcryst": 2570,
      "Ġstarting": 2571,
      "Ġbey": 2572,
      "xxxx": 2573,
      "bit": 2574,
      "Ġingred": 2575,
      "Ġbeyond": 2576,
      "ofs": 2577,
      "Ġprofess": 2578,
      "Ġallowed": 2579,
      "Ġrainofs": 2580,
      "Ġrainofsnow": 2581,
      "Ġnose": 2582,
      "Ġsoldiers": 2583,
      "Ġjap": 2584,
      "Ġshaking": 2585,
      "ba": 2586,
      "Ġlevi": 2587,
      "Ġbab": 2588,
      "Ġkis": 2589,
      "Ġearth": 2590,
      "laim": 2591,
      "Ġgent": 2592,
      "Ġfly": 2593,
      "ery": 2594,
      "ift": 2595,
      "Ġlose": 2596,
      "Ġexplain": 2597,
      "Ġcurious": 2598,
      "father": 2599,
      "Ġcollect": 2600,
      "Ġjapan": 2601,
      "Ġequ": 2602,
      "isf": 2603,
      "oned": 2604,
      "Ġattempt": 2605,
      "Ġbath": 2606,
      "aded": 2607,
      "Ġresult": 2608,
      "Ġbusy": 2609,
      "Ġoffice": 2610,
      "Ġenjoyed": 2611,
      "Ġtongue": 2612,
      "ator": 2613,
      "Ġtot": 2614,
      "Ġteacher": 2615,
      "Ġpaused": 2616,
      "Ġreview": 2617,
      "Ġfay": 2618,
      "Ġinvol": 2619,
      "Ġpaper": 2620,
      "Ġspec": 2621,
      "Ġpurpose": 2622,
      "Ġminute": 2623,
      "Ġhated": 2624,
      "Ġfaye": 2625,
      "::": 2626,
      "Ġsnapped": 2627,
      "Ġjud": 2628,
      "Ġinn": 2629,
      "oto": 2630,
      "Ġattend": 2631,
      "Ġexplained": 2632,
      "ution": 2633,
      "Ġexam": 2634,
      "Ġprevious": 2635,
      "ades": 2636,
      "Ġfirm": 2637,
      "Ġtremb": 2638,
      "Ġexha": 2639,
      "Ġsep": 2640,
      "Ġimpossible": 2641,
      "Ġshowed": 2642,
      "Ġsick": 2643,
      "Ġsal": 2644,
      "ane": 2645,
      "Ġwo": 2646,
      "Ġapartment": 2647,
      "scious": 2648,
      "usted": 2649,
      "Ġbull": 2650,
      "Ġsuppose": 2651,
      "tering": 2652,
      "Ġspell": 2653,
      "Ġsounded": 2654,
      "Ġcloud": 2655,
      "Ġfaces": 2656,
      "Ġunfort": 2657,
      "Ġrag": 2658,
      "Ġwel": 2659,
      "br": 2660,
      "Ġvisit": 2661,
      "sh": 2662,
      "Ġpalm": 2663,
      "du": 2664,
      "Ġamount": 2665,
      "Ġopt": 2666,
      "acted": 2667,
      "Ġsta": 2668,
      "Ġkagome": 2669,
      "Ġdropped": 2670,
      "Ġbrain": 2671,
      "nded": 2672,
      "Ġtech": 2673,
      "Ġsleeping": 2674,
      "ayed": 2675,
      "Ġabsolute": 2676,
      "come": 2677,
      "ika": 2678,
      "Ġgrandfather": 2679,
      "Ġunderstood": 2680,
      "Ġputting": 2681,
      "Ġapparently": 2682,
      "Ġedge": 2683,
      "Ġmikasa": 2684,
      "irt": 2685,
      "Ġlunch": 2686,
      "rup": 2687,
      "ipping": 2688,
      "eve": 2689,
      "Ġdate": 2690,
      "Ġfool": 2691,
      "Ġindeed": 2692,
      "ising": 2693,
      "Ġadult": 2694,
      "Ġrolled": 2695,
      "Ġtraining": 2696,
      "Ġgal": 2697,
      "ges": 2698,
      "Ġsharp": 2699,
      "ask": 2700,
      "pes": 2701,
      "Ġuncomfort": 2702,
      "ract": 2703,
      "Ġconnect": 2704,
      "chen": 2705,
      "ique": 2706,
      "ety": 2707,
      "aces": 2708,
      "Ġkeeping": 2709,
      "Ġdangerous": 2710,
      "ls": 2711,
      "Ġrespect": 2712,
      "Ġstate": 2713,
      "Ġgentle": 2714,
      "Ġris": 2715,
      "Ġcrow": 2716,
      "Ġprog": 2717,
      "fer": 2718,
      "Ġrom": 2719,
      "Ġgra": 2720,
      "ku": 2721,
      "Ġcorrect": 2722,
      "Ġcatch": 2723,
      "sidered": 2724,
      "Ġboo": 2725,
      "Ġstare": 2726,
      "Ġpulling": 2727,
      "Ġment": 2728,
      "Ġfan": 2729,
      "oof": 2730,
      "Ġwood": 2731,
      "Ġhers": 2732,
      "Ġservice": 2733,
      "ustr": 2734,
      "Ġpub": 2735,
      "Ġembarrass": 2736,
      "Ġtobe": 2737,
      "leep": 2738,
      "Ġconsidered": 2739,
      "Ġgend": 2740,
      "Ġexcuse": 2741,
      "light": 2742,
      "Ġincre": 2743,
      "Ġkaji": 2744,
      "Ġemotion": 2745,
      "roud": 2746,
      "Ġsurprising": 2747,
      "Ġnor": 2748,
      "Ġpet": 2749,
      "Ġsuit": 2750,
      "Ġeb": 2751,
      "Ġdestroy": 2752,
      "Ġkik": 2753,
      "Ġkids": 2754,
      "Ġyounger": 2755,
      "what": 2756,
      "Ġfuck": 2757,
      "Ġcrazy": 2758,
      "Ġunable": 2759,
      "Ġdar": 2760,
      "Ġchin": 2761,
      "Ġasleep": 2762,
      "Ġswall": 2763,
      "Ġkitchen": 2764,
      "Ġval": 2765,
      "Ġoppos": 2766,
      "Ġmood": 2767,
      "Ġhikari": 2768,
      "Ġobject": 2769,
      "Ġsac": 2770,
      "Ġble": 2771,
      "Ġdeter": 2772,
      "ph": 2773,
      "Ġprec": 2774,
      "Ġactiv": 2775,
      "Ġaur": 2776,
      "val": 2777,
      "Ġawak": 2778,
      "Ġlifted": 2779,
      "ients": 2780,
      "Ġamaz": 2781,
      "Ġdarkness": 2782,
      "amed": 2783,
      "Ġvill": 2784,
      "Ġspl": 2785,
      "els": 2786,
      "ards": 2787,
      "Ġbutt": 2788,
      "Ġjoin": 2789,
      "Ġonii": 2790,
      "Ġspeed": 2791,
      "Ġcried": 2792,
      "Ġgrinned": 2793,
      "lud": 2794,
      "co": 2795,
      "Ġexperience": 2796,
      "Ġseries": 2797,
      "Ġburst": 2798,
      "Ġsomewhat": 2799,
      "Ġappreci": 2800,
      "Ġrock": 2801,
      "Ġmod": 2802,
      "Ġvi": 2803,
      "Ġay": 2804,
      "Ġlower": 2805,
      "wor": 2806,
      "Ġsatisf": 2807,
      "Ġgets": 2808,
      "Ġconcern": 2809,
      "Ġregret": 2810,
      "ager": 2811,
      "llen": 2812,
      "iding": 2813,
      "Ġreaction": 2814,
      "lessly": 2815,
      "unity": 2816,
      "otions": 2817,
      "Ġ?'": 2818,
      "Ġanx": 2819,
      "Ġfit": 2820,
      "Ġaff": 2821,
      "Ġstret": 2822,
      "ione": 2823,
      "Ġgigg": 2824,
      "Ġcaused": 2825,
      "Ġlog": 2826,
      "Ġladies": 2827,
      "Ġuncle": 2828,
      "Ġformer": 2829,
      "iment": 2830,
      "Ġdoctor": 2831,
      "Ġsteps": 2832,
      "itude": 2833,
      "Ġgest": 2834,
      "Ġnarr": 2835,
      "Ġagreed": 2836,
      "velop": 2837,
      "ones": 2838,
      "Ġrefle": 2839,
      "Ġuns": 2840,
      "Ġreceived": 2841,
      "Ġproperly": 2842,
      "Ġthrew": 2843,
      "Ġremain": 2844,
      "Ġfinish": 2845,
      "Ġunif": 2846,
      "Ġdemand": 2847,
      "Ġherm": 2848,
      "arily": 2849,
      "Ġsak": 2850,
      "Ġpromise": 2851,
      "Ġreality": 2852,
      "Ġcrossed": 2853,
      "Ġtor": 2854,
      "Ġnecess": 2855,
      "Ġmedic": 2856,
      "Ġtechn": 2857,
      "ances": 2858,
      "Ġdeg": 2859,
      "Ġspread": 2860,
      "Ġsmo": 2861,
      "Ġspee": 2862,
      "Ġspir": 2863,
      "min": 2864,
      "Ġvict": 2865,
      "Ġentr": 2866,
      "Ġwondering": 2867,
      "Ġmid": 2868,
      "Ġpowerful": 2869,
      "Ġikari": 2870,
      "Ġcommon": 2871,
      "owers": 2872,
      "Ġgoes": 2873,
      "Ġneither": 2874,
      "ert": 2875,
      "Ġuniform": 2876,
      "Ġfucking": 2877,
      "Ġproud": 2878,
      "Ġarmy": 2879,
      "Ġaki": 2880,
      "ially": 2881,
      "Ġest": 2882,
      "Ġforehead": 2883,
      "iny": 2884,
      "Ġstuck": 2885,
      "Ġpocket": 2886,
      "Ġcomfortable": 2887,
      "Ġlaughing": 2888,
      "Ġfem": 2889,
      "Ġhermione": 2890,
      "ishing": 2891,
      "Ġhikio": 2892,
      "Ġcannot": 2893,
      "Ġinj": 2894,
      "Ġmill": 2895,
      "Ġmurm": 2896,
      "Ġpriv": 2897,
      "Ġconfir": 2898,
      "Ġwand": 2899,
      "Ġtalked": 2900,
      "Ġpill": 2901,
      "Ġqueen": 2902,
      "Ġbell": 2903,
      "ibility": 2904,
      "Ġbrothers": 2905,
      "Ġforest": 2906,
      "Ġescape": 2907,
      "Ġsuccess": 2908,
      "Ġkens": 2909,
      "over": 2910,
      "Ġprov": 2911,
      "Ġallow": 2912,
      "Ġshall": 2913,
      "Ġmonster": 2914,
      "Ġbeha": 2915,
      "Ġ!]": 2916,
      "Ġstro": 2917,
      "Ġholy": 2918,
      "ners": 2919,
      "ping": 2920,
      "Ġgolden": 2921,
      "Ġopport": 2922,
      "Ġfault": 2923,
      "bs": 2924,
      "Ġcharacter": 2925,
      "Ġcomment": 2926,
      "Ġfalling": 2927,
      "Ġchuckled": 2928,
      "Ġglared": 2929,
      "Ġobviously": 2930,
      "Ġclenched": 2931,
      "Ġsubject": 2932,
      "ga": 2933,
      "Ġsix": 2934,
      "Ġprepared": 2935,
      "lo": 2936,
      "Ġak": 2937,
      "Ġhiding": 2938,
      "Ġlearn": 2939,
      "Ġum": 2940,
      "acks": 2941,
      "ron": 2942,
      "Ġfeels": 2943,
      "Ġweight": 2944,
      "itary": 2945,
      "Ġsilently": 2946,
      "Ġblind": 2947,
      "Ġweapon": 2948,
      "Ġspeech": 2949,
      "Ġexchan": 2950,
      "Ġfro": 2951,
      "Ġjumped": 2952,
      "vent": 2953,
      "Ġaffect": 2954,
      "ena": 2955,
      "Ġrealize": 2956,
      "Ġcolor": 2957,
      "Ġfaint": 2958,
      "Ġfrustr": 2959,
      "Ġmessage": 2960,
      "Ġtightly": 2961,
      "Ġoper": 2962,
      "ords": 2963,
      "Ġhelen": 2964,
      "Ġfocus": 2965,
      "Ġinteresting": 2966,
      "Ġmeaning": 2967,
      "ries": 2968,
      "asing": 2969,
      "Ġge": 2970,
      "Ġpoor": 2971,
      "Ġmoon": 2972,
      "uel": 2973,
      "su": 2974,
      "Ġlistening": 2975,
      "Ġuncomfortable": 2976,
      "Ġstayed": 2977,
      "Ġdi": 2978,
      "Ġhappening": 2979,
      "Ġdetail": 2980,
      "Ġled": 2981,
      "Ġmale": 2982,
      "Ġingredients": 2983,
      "Ġknees": 2984,
      "Ġyo": 2985,
      "Ġdressed": 2986,
      "Ġring": 2987,
      "Ġconcer": 2988,
      "Ġwrapped": 2989,
      "Ġstar": 2990,
      "Ġwhenever": 2991,
      "Ġhumans": 2992,
      "Ġdirectly": 2993,
      "ashi": 2994,
      "cri": 2995,
      "Ġauth": 2996,
      "Ġaccom": 2997,
      "Ġcareful": 2998,
      "Ġappearance": 2999,
      "Ġboys": 3000,
      "Ġsakura": 3001,
      "Ġwarrior": 3002,
      "Ġcup": 3003,
      "Ġbrown": 3004,
      "under": 3005,
      "rupt": 3006,
      "Ġcause": 3007,
      "inc": 3008,
      "Ġconsidering": 3009,
      "Ġwake": 3010,
      "Ġport": 3011,
      "Ġiris": 3012,
      "Ġdisappo": 3013,
      "mbers": 3014,
      "Ġweeks": 3015,
      "erman": 3016,
      "Ġchoo": 3017,
      "Ġya": 3018,
      "Ġsne": 3019,
      "iles": 3020,
      "Ġmachine": 3021,
      "Ġlived": 3022,
      "ils": 3023,
      "Ġcrowd": 3024,
      "Ġemotions": 3025,
      "Ġsweat": 3026,
      "Ġvio": 3027,
      "Ġopening": 3028,
      "Ġtonight": 3029,
      "Ġslam": 3030,
      "Ġice": 3031,
      "Ġfeat": 3032,
      "Ġround": 3033,
      "Ġactions": 3034,
      "Ġexcited": 3035,
      "Ġwrite": 3036,
      "Ġbeneath": 3037,
      "Ġhug": 3038,
      "Ġsmell": 3039,
      "Ġnarrowed": 3040,
      "Ġcompany": 3041,
      "Ġwilling": 3042,
      "Ġopposite": 3043,
      "Ġhig": 3044,
      "uzz": 3045,
      "Ġmountain": 3046,
      "miss": 3047,
      "Ġhandle": 3048,
      "Ġstreet": 3049,
      "Ġhidden": 3050,
      "Ġviolet": 3051,
      "Ġinstinct": 3052,
      "Ġinterrup": 3053,
      "Ġroyal": 3054,
      "Ġacce": 3055,
      "ey": 3056,
      "Ġtab": 3057,
      "zed": 3058,
      "Ġnod": 3059,
      "ote": 3060,
      "ival": 3061,
      "band": 3062,
      "Ġnearby": 3063,
      "Ġclay": 3064,
      "Ġdeterm": 3065,
      "Ġways": 3066,
      "Ġscreamed": 3067,
      "ensive": 3068,
      "Ġtown": 3069,
      "wise": 3070,
      "Ġglare": 3071,
      "Ġtaste": 3072,
      "Ġtouched": 3073,
      "tom": 3074,
      "ral": 3075,
      "Ġlives": 3076,
      "Ġhund": 3077,
      "cho": 3078,
      "Ġunfortunately": 3079,
      "Ġhundred": 3080,
      "oved": 3081,
      "Ġrespons": 3082,
      "Ġsnow": 3083,
      "agi": 3084,
      "Ġcalling": 3085,
      "zen": 3086,
      "Ġlearned": 3087,
      "Ġaud": 3088,
      "osing": 3089,
      "Ġdog": 3090,
      "cking": 3091,
      "Ġ!?": 3092,
      "cted": 3093,
      "Ġgrip": 3094,
      "Ġsama": 3095,
      "Ġconfusion": 3096,
      "Ġfunny": 3097,
      "Ġlaughter": 3098,
      "Ġobser": 3099,
      "aka": 3100,
      "Ġfully": 3101,
      "anted": 3102,
      "Ġimagine": 3103,
      "Ġbreathing": 3104,
      "Ġtots": 3105,
      "Ġmilitary": 3106,
      "Ġflat": 3107,
      "Ġlu": 3108,
      "Ġignored": 3109,
      "Ġviol": 3110,
      "Ġfailed": 3111,
      "Ġignore": 3112,
      "Ġlap": 3113,
      "Ġpieces": 3114,
      "Ġroad": 3115,
      "Ġclim": 3116,
      "Ġsob": 3117,
      "esh": 3118,
      "Ġbow": 3119,
      "oma": 3120,
      "Ġopportunity": 3121,
      "ashing": 3122,
      "Ġpink": 3123,
      "Ġincred": 3124,
      "aur": 3125,
      "Ġfran": 3126,
      "atea": 3127,
      "Ġmembers": 3128,
      "Ġoffered": 3129,
      "Ġclaymore": 3130,
      "Ġsepar": 3131,
      "Ġtil": 3132,
      "Ġsurv": 3133,
      "Ġthin": 3134,
      "Ġauthor": 3135,
      "Ġhorri": 3136,
      "Ġpit": 3137,
      "Ġwild": 3138,
      "Ġcy": 3139,
      "Ġsoul": 3140,
      "Ġentirely": 3141,
      "Ġwriting": 3142,
      "Ġcarried": 3143,
      "Ġebina": 3144,
      "Ġpicture": 3145,
      "Ġgroan": 3146,
      "Ġbaby": 3147,
      "Ġtarget": 3148,
      "Ġrese": 3149,
      "Ġmusc": 3150,
      "ledge": 3151,
      "Ġbirthday": 3152,
      "Ġvar": 3153,
      "Ġgalatea": 3154,
      "Ġordered": 3155,
      "Ġhelping": 3156,
      "Ġblonde": 3157,
      "reme": 3158,
      "Ġdisappeared": 3159,
      "Ġpush": 3160,
      "Ġdecl": 3161,
      "Ġdan": 3162,
      "Ġshocked": 3163,
      "Ġhan": 3164,
      "Ġbra": 3165,
      "asant": 3166,
      "eng": 3167,
      "Ġjump": 3168,
      "Ġbelow": 3169,
      "Ġmax": 3170,
      "Ġdevil": 3171,
      "Ġdarling": 3172,
      "Ġneeds": 3173,
      "ational": 3174,
      "Ġdut": 3175,
      "Ġcamp": 3176,
      "ency": 3177,
      "fting": 3178,
      "Ġmanner": 3179,
      "Ġspo": 3180,
      "uine": 3181,
      "Ġtakes": 3182,
      "Ġbowed": 3183,
      "Ġgrim": 3184,
      "Ġmal": 3185,
      "Ġentrance": 3186,
      "ension": 3187,
      "Ġreceive": 3188,
      "Ġdiv": 3189,
      "Ġwidened": 3190,
      "oru": 3191,
      "Ġimage": 3192,
      "Ġiro": 3193,
      "Ġgenuine": 3194,
      "Ġver": 3195,
      "Ġgil": 3196,
      "Ġcurrently": 3197,
      "Ġspend": 3198,
      "Ġdear": 3199,
      "hin": 3200,
      "Ġnoble": 3201,
      "icated": 3202,
      "Ġinterested": 3203,
      "Ġsour": 3204,
      "tled": 3205,
      "Ġteen": 3206,
      "Ġthick": 3207,
      "Ġfinding": 3208,
      "Ġpossess": 3209,
      "Ġreminded": 3210,
      "Ġcenter": 3211,
      "Ġsurf": 3212,
      "Ġiroha": 3213,
      "Ġscrat": 3214,
      "Ġaction": 3215,
      "Ġcounter": 3216,
      "Ġknock": 3217,
      "Ġgrown": 3218,
      "Ġeh": 3219,
      "Ġwore": 3220,
      "Ġdeli": 3221,
      "tery": 3222,
      "Ġhus": 3223,
      "Ġmotion": 3224,
      "itor": 3225,
      "Ġrad": 3226,
      "Ġgras": 3227,
      "con": 3228,
      "Ġlock": 3229,
      "Ġlightly": 3230,
      "Ġvol": 3231,
      "Ġfortunately": 3232,
      "athered": 3233,
      "Ġhanded": 3234,
      "Ġcausing": 3235,
      "Ġtree": 3236,
      "Ġwalls": 3237,
      "you": 3238,
      "ese": 3239,
      "Ġtotsuka": 3240,
      "Ġstated": 3241,
      "Ġpond": 3242,
      "Ġmember": 3243,
      "Ġkir": 3244,
      "land": 3245,
      "Ġupd": 3246,
      "Ġabsolutely": 3247,
      "Ġdispl": 3248,
      "Ġmari": 3249,
      "Ġcheer": 3250,
      "Ġaim": 3251,
      "Ġmark": 3252,
      "ocking": 3253,
      "Ġdeeply": 3254,
      "quet": 3255,
      "Ġfocused": 3256,
      "Ġevening": 3257,
      "Ġreport": 3258,
      "Ġsaved": 3259,
      "Ġprofessor": 3260,
      "ading": 3261,
      "Ġgrowing": 3262,
      "Ġguest": 3263,
      "Ġplug": 3264,
      "inting": 3265,
      "hetic": 3266,
      "Ġorders": 3267,
      "ulous": 3268,
      "asion": 3269,
      "Ġleaning": 3270,
      "Ġmissing": 3271,
      "Ġhesitated": 3272,
      "Ġrecipe": 3273,
      "Ġprecious": 3274,
      "Ġletter": 3275,
      "Ġnormally": 3276,
      "Ġscar": 3277,
      "Ġmedicine": 3278,
      "Ġlab": 3279,
      "una": 3280,
      "Ġvision": 3281,
      "Ġmistake": 3282,
      "Ġ<": 3283,
      "Ġdumb": 3284,
      "Ġcouncil": 3285,
      "Ġbitter": 3286,
      "Ġvo": 3287,
      "Ġdecision": 3288,
      "ley": 3289,
      "Ġcollap": 3290,
      "Ġeld": 3291,
      "Ġtwisted": 3292,
      "Ġirrit": 3293,
      "laimed": 3294,
      "Ġseven": 3295,
      "Ġacting": 3296,
      "Ġterrit": 3297,
      "Ġmix": 3298,
      "fa": 3299,
      "Ġcrown": 3300,
      "Ġoffer": 3301,
      "Ġmentioned": 3302,
      "Ġnoise": 3303,
      "Ġlocked": 3304,
      "Ġfavorability": 3305,
      "Ġmurmured": 3306,
      "Ġwaved": 3307,
      "Ġfold": 3308,
      "Ġconcerned": 3309,
      "Ġmel": 3310,
      "aped": 3311,
      "Ġkilling": 3312,
      "resh": 3313,
      "Ġgathered": 3314,
      "Ġinnoc": 3315,
      "rr": 3316,
      "ises": 3317,
      "Ġresponded": 3318,
      "Ġgendo": 3319,
      "sy": 3320,
      "Ġsquad": 3321,
      "ife": 3322,
      "Ġbecoming": 3323,
      "Ġunex": 3324,
      "Ġagree": 3325,
      "Ġmaya": 3326,
      "uza": 3327,
      "phi": 3328,
      "Ġsmirked": 3329,
      "Ġplans": 3330,
      "igned": 3331,
      "ots": 3332,
      "Ġreject": 3333,
      "Ġgerman": 3334,
      "Ġpin": 3335,
      "Ġtick": 3336,
      "Ġnumb": 3337,
      "Ġmission": 3338,
      "Ġ>": 3339,
      "andom": 3340,
      "Ġdelic": 3341,
      "Ġmetal": 3342,
      "mon": 3343,
      "Ġhoping": 3344,
      "Ġgather": 3345,
      "Ġrushed": 3346,
      "Ġsoldier": 3347,
      "Ġexistence": 3348,
      "Ġflesh": 3349,
      "Ġlaid": 3350,
      "Ġmeal": 3351,
      "Ġeyed": 3352,
      "Ġaurar": 3353,
      "Ġdry": 3354,
      "ilities": 3355,
      "Ġdevelop": 3356,
      "Ġability": 3357,
      "Ġchecked": 3358,
      "Ġfigured": 3359,
      "Ġkey": 3360,
      "Ġbal": 3361,
      "umi": 3362,
      "Ġannoyed": 3363,
      "Ġworst": 3364,
      "Ġbooks": 3365,
      "Ġperfectly": 3366,
      "atic": 3367,
      "Ġmissed": 3368,
      "Ġorganization": 3369,
      "Ġintend": 3370,
      "Ġrare": 3371,
      "Ġdescri": 3372,
      "Ġthrone": 3373,
      "Ġident": 3374,
      "Ġsex": 3375,
      "Ġeasier": 3376,
      "Ġapologize": 3377,
      "Ġecho": 3378,
      "Ġrin": 3379,
      "Ġpossibly": 3380,
      "Ġpuzz": 3381,
      "Ġpolit": 3382,
      "Ġembarrassed": 3383,
      "Ġtwit": 3384,
      "Ġmostly": 3385,
      "Ġmerely": 3386,
      "Ġwoke": 3387,
      "Ġawakened": 3388,
      "Ġunless": 3389,
      "Ġmumbled": 3390,
      "Ġlip": 3391,
      "Ġinterrupted": 3392,
      "Ġheads": 3393,
      "Ġstaff": 3394,
      "Ġmah": 3395,
      "Ġlon": 3396,
      "Ġ'.": 3397,
      "eless": 3398,
      "Ġotherwise": 3399,
      "illa": 3400,
      "etsu": 3401,
      "Ġrepeated": 3402,
      "Ġuncas": 3403,
      "Ġdrop": 3404,
      "Ġextreme": 3405,
      "Ġrough": 3406,
      "Ġresist": 3407,
      "Ġsmirk": 3408,
      "ram": 3409,
      "ism": 3410,
      "Ġyell": 3411,
      "Ġwear": 3412,
      "bel": 3413,
      "udd": 3414,
      "antic": 3415,
      "Ġfail": 3416,
      "Ġgirlf": 3417,
      "pper": 3418,
      "Ġsurely": 3419,
      "Ġunexpected": 3420,
      "Ġgirlfriend": 3421,
      "roid": 3422,
      "Ġragyo": 3423,
      "Ġforth": 3424,
      "Ġwrist": 3425,
      "Ġhello": 3426,
      "hil": 3427,
      "Ġflying": 3428,
      "Ġanyways": 3429,
      "Ġhosp": 3430,
      "Ġhusband": 3431,
      "Ġbetr": 3432,
      "Ġfemale": 3433,
      "son": 3434,
      "Ġbreaking": 3435,
      "Ġposit": 3436,
      "line": 3437,
      "ists": 3438,
      "Ġreaching": 3439,
      "Ġincident": 3440,
      "Ġ%": 3441,
      "esty": 3442,
      "Ġrab": 3443,
      "Ġbelong": 3444,
      "idge": 3445,
      "Ġsupporting": 3446,
      "Ġmirror": 3447,
      "uing": 3448,
      "Ġlines": 3449,
      "Ġnatural": 3450,
      "Ġinstantly": 3451,
      "Ġnecessary": 3452,
      "Ġcombat": 3453,
      "Ġsaki": 3454,
      "Ġpale": 3455,
      "cky": 3456,
      "Ġridic": 3457,
      "Ġjaw": 3458,
      "Ġsurface": 3459,
      "Ġliter": 3460,
      "Ġupset": 3461,
      "Ġproceed": 3462,
      "Ġexpecting": 3463,
      "kai": 3464,
      "Ġcreep": 3465,
      "Ġlack": 3466,
      "Ġreturning": 3467,
      "Ġlaw": 3468,
      "der": 3469,
      "ns": 3470,
      "Ġkikyo": 3471,
      "work": 3472,
      "Ġsending": 3473,
      "Ġterrible": 3474,
      "Ġpushing": 3475,
      "Ġvan": 3476,
      "Ġdare": 3477,
      "Ġhost": 3478,
      "Ġhurry": 3479,
      "Ġshowing": 3480,
      "Ġbathroom": 3481,
      "ires": 3482,
      "Ġsas": 3483,
      "Ġcontr": 3484,
      "Ġheat": 3485,
      "Ġgreeted": 3486,
      "Ġwhose": 3487,
      "Ġ--": 3488,
      "Ġinvolved": 3489,
      "Ġdistr": 3490,
      "Ġcam": 3491,
      "Ġdrac": 3492,
      "pting": 3493,
      "Ġheading": 3494,
      "Ġterritory": 3495,
      "Ġtam": 3496,
      "Ġdrew": 3497,
      "Ġpure": 3498,
      "Ġaddition": 3499,
      "pan": 3500,
      "Ġfought": 3501,
      "Ġfists": 3502,
      "Ġnature": 3503,
      "Ġyoma": 3504,
      "orth": 3505,
      "icing": 3506,
      "ring": 3507,
      "Ġwaist": 3508,
      "Ġservant": 3509,
      "Ġbanquet": 3510,
      "Ġanim": 3511,
      "Ġforgotten": 3512,
      "ousand": 3513,
      "bled": 3514,
      "Ġadmitted": 3515,
      "ented": 3516,
      "Ġthousand": 3517,
      "Ġyours": 3518,
      "Ġwhisper": 3519,
      "Ġgift": 3520,
      "Ġinit": 3521,
      "fast": 3522,
      "Ġuncon": 3523,
      "cl": 3524,
      "Ġhappens": 3525,
      "Ġmassive": 3526,
      "ining": 3527,
      "Ġservants": 3528,
      "Ġgor": 3529,
      "Ġwarriors": 3530,
      "ume": 3531,
      "Ġpublic": 3532,
      "Ġfif": 3533,
      "Ġhist": 3534,
      "Ġsquee": 3535,
      "Ġannoun": 3536,
      "Ġhospital": 3537,
      "Ġforever": 3538,
      "Ġswallowed": 3539,
      "Ġfaster": 3540,
      "Ġbutton": 3541,
      "Ġadj": 3542,
      "Ġcal": 3543,
      "Ġcook": 3544,
      "Ġsteal": 3545,
      "Ġbedroom": 3546,
      "Ġandroid": 3547,
      "Ġack": 3548,
      "Ġscen": 3549,
      "Ġcell": 3550,
      "Ġaband": 3551,
      "ler": 3552,
      "ffed": 3553,
      "ky": 3554,
      "Ġreact": 3555,
      "Ġborn": 3556,
      "Ġwiz": 3557,
      "Ġsize": 3558,
      "Ġplanning": 3559,
      "Ġkick": 3560,
      "Ġraki": 3561,
      "Ġtiny": 3562,
      "Ġwounds": 3563,
      "alous": 3564,
      "ives": 3565,
      "Ġnobles": 3566,
      "Ġhun": 3567,
      "ana": 3568,
      "antage": 3569,
      "Ġmisa": 3570,
      "Ġrefused": 3571,
      "Ġshifted": 3572,
      "Ġnaturally": 3573,
      "Ġpopular": 3574,
      "Ġhanging": 3575,
      "Ġkensuke": 3576,
      "haha": 3577,
      "Ġbast": 3578,
      "ich": 3579,
      "Ġstab": 3580,
      "astic": 3581,
      "Ġlowered": 3582,
      "Ġaftern": 3583,
      "Ġstaying": 3584,
      "aku": 3585,
      "Ġsco": 3586,
      "Ġphysical": 3587,
      "Ġsocial": 3588,
      "Ġstick": 3589,
      "Ġturns": 3590,
      "iting": 3591,
      "Ġpresident": 3592,
      "Ġproject": 3593,
      "Ġbreakfast": 3594,
      "Ġmatch": 3595,
      "ustom": 3596,
      "Ġsake": 3597,
      "Ġfright": 3598,
      "Ġwelcome": 3599,
      "Ġblow": 3600,
      "Ġempress": 3601,
      "Ġstairs": 3602,
      "Ġtrip": 3603,
      "Ġdiet": 3604,
      "ison": 3605,
      "ague": 3606,
      "Ġbreathed": 3607,
      "Ġrap": 3608,
      "Ġstiff": 3609,
      "nel": 3610,
      "Ġrecipes": 3611,
      "Ġgul": 3612,
      "Ġben": 3613,
      "Ġcommun": 3614,
      "Ġhoped": 3615,
      "Ġauraria": 3616,
      "overed": 3617,
      "Ġfirmly": 3618,
      "Ġaccepted": 3619,
      "Ġaccord": 3620,
      "Ġachi": 3621,
      "Ġbelieved": 3622,
      "ium": 3623,
      "Ġwow": 3624,
      "Ġproblems": 3625,
      "Ġpainting": 3626,
      "Ġmot": 3627,
      "Ġbrow": 3628,
      "Ġignoring": 3629,
      "Ġjet": 3630,
      "Ġevents": 3631,
      "Ġrubbed": 3632,
      "Ġcand": 3633,
      "Ġzaim": 3634,
      "bly": 3635,
      "Ġcost": 3636,
      "Ġbuilt": 3637,
      "Ġkicked": 3638,
      "Ġstronger": 3639,
      "Ġdeb": 3640,
      "Ġbod": 3641,
      "Ġdig": 3642,
      "Ġrot": 3643,
      "Ġpred": 3644,
      "Ġyor": 3645,
      "Ġimpact": 3646,
      "Ġremaining": 3647,
      "Ġafternoon": 3648,
      "Ġfallen": 3649,
      "Ġhallway": 3650,
      "akes": 3651,
      "Ġrecently": 3652,
      "Ġuni": 3653,
      "ument": 3654,
      "Ġredhead": 3655,
      "Ġshare": 3656,
      "Ġtotally": 3657,
      "men": 3658,
      "Ġtok": 3659,
      "Ġguilt": 3660,
      "Ġplanned": 3661,
      "ias": 3662,
      "Ġband": 3663,
      "Ġsuspicious": 3664,
      "Ġwave": 3665,
      "Ġinclud": 3666,
      "Ġpriests": 3667,
      "Ġhugged": 3668,
      "Ġmahina": 3669,
      "Ġtrembling": 3670,
      "Ġwritten": 3671,
      "kn": 3672,
      "Ġsyn": 3673,
      "Ġyelled": 3674,
      "Ġscary": 3675,
      "Ġlistened": 3676,
      "Ġprop": 3677,
      "ev": 3678,
      "mother": 3679,
      "Ġdoors": 3680,
      "Ġ.''": 3681,
      "Ġannoying": 3682,
      "Ġgrad": 3683,
      "Ġhint": 3684,
      "Ġcho": 3685,
      "Ġopin": 3686,
      "Ġatm": 3687,
      "Ġriful": 3688,
      "Ġsmooth": 3689,
      "Ġstun": 3690,
      "Ġcalmly": 3691,
      "Ġfate": 3692,
      "usting": 3693,
      "Ġintro": 3694,
      "Ġaver": 3695,
      "Ġchiba": 3696,
      "Ġrecord": 3697,
      "Ġscow": 3698,
      "Ġpack": 3699,
      "Ġexclaimed": 3700,
      "Ġatmosp": 3701,
      "Ġblame": 3702,
      "Ġsmart": 3703,
      "Ġposted": 3704,
      "Ġblur": 3705,
      "Ġfresh": 3706,
      "Ġarr": 3707,
      "Ġbringing": 3708,
      "born": 3709,
      "Ġflash": 3710,
      "Ġcommit": 3711,
      "Ġbriefly": 3712,
      "Ġneg": 3713,
      "Ġoccasion": 3714,
      "inging": 3715,
      "Ġrelieved": 3716,
      "Ġmusic": 3717,
      "Ġexpress": 3718,
      "Ġknife": 3719,
      "Ġnobody": 3720,
      "Ġchat": 3721,
      "Ġarmor": 3722,
      "Ġclothing": 3723,
      "Ġfriendly": 3724,
      "Ġdraco": 3725,
      "Ġshiz": 3726,
      "Ġprogress": 3727,
      "Ġzaimok": 3728,
      "Ġintention": 3729,
      "Ġfeatures": 3730,
      "Ġkl": 3731,
      "Ġinstant": 3732,
      "lish": 3733,
      "Ġatmosphere": 3734,
      "har": 3735,
      "Ġunderstanding": 3736,
      "belie": 3737,
      "Ġwhom": 3738,
      "Ġplayed": 3739,
      "Ġmaintain": 3740,
      "Ġprevent": 3741,
      "Ġbub": 3742,
      "Ġrob": 3743,
      "aked": 3744,
      "hile": 3745,
      "Ġchose": 3746,
      "ality": 3747,
      "acy": 3748,
      "Ġsam": 3749,
      "cul": 3750,
      "ho": 3751,
      "idly": 3752,
      "Ġwet": 3753,
      "Ġhungry": 3754,
      "inary": 3755,
      "Ġcared": 3756,
      "Ġcouch": 3757,
      "Ġparticularly": 3758,
      "Ġstrike": 3759,
      "Ġtilted": 3760,
      "zing": 3761,
      "Ġbought": 3762,
      "Ġintern": 3763,
      "Ġutter": 3764,
      "Ġzaimokuza": 3765,
      "Ġ$~": 3766,
      "agon": 3767,
      "Ġclassroom": 3768,
      "Ġdamage": 3769,
      "anna": 3770,
      "Ġlang": 3771,
      "Ġthus": 3772,
      "Ġcapable": 3773,
      "Ġclut": 3774,
      "Ġperform": 3775,
      "Ġpoints": 3776,
      "Ġchoose": 3777,
      "stand": 3778,
      "Ġwarning": 3779,
      "Ġrude": 3780,
      "Ġdrawing": 3781,
      "rog": 3782,
      "aging": 3783,
      "Ġrein": 3784,
      "Ġhom": 3785,
      "Ġslid": 3786,
      "Ġcharge": 3787,
      "Ġexperien": 3788,
      "Ġshared": 3789,
      "Ġjealous": 3790,
      "Ġharder": 3791,
      "Ġslipped": 3792,
      "thy": 3793,
      "teen": 3794,
      "Ġconvin": 3795,
      "Ġsong": 3796,
      "Ġconscious": 3797,
      "Ġreward": 3798,
      "Ġknowledge": 3799,
      "Ġlim": 3800,
      "une": 3801,
      "ips": 3802,
      "ucked": 3803,
      "Ġeyebrows": 3804,
      "Ġwolf": 3805,
      "urity": 3806,
      "Ġgives": 3807,
      "Ġletters": 3808,
      "Ġprefer": 3809,
      "Ġadm": 3810,
      "Ġlottery": 3811,
      "the": 3812,
      "Ġstation": 3813,
      "Ġprivate": 3814,
      "Ġjapanese": 3815,
      "Ġkinda": 3816,
      "Ġgate": 3817,
      "Ġakio": 3818,
      "Ġpride": 3819,
      "Ġprisc": 3820,
      "Ġnervously": 3821,
      "Ġacqu": 3822,
      "Ġrandom": 3823,
      "Ġpriscilla": 3824,
      "fit": 3825,
      "Ġtokyo": 3826,
      "Ġcolon": 3827,
      "Ġvarious": 3828,
      "Ġcompared": 3829,
      "Ġsty": 3830,
      "Ġburning": 3831,
      "Ġdesire": 3832,
      "Ġclaim": 3833,
      "Ġwanting": 3834,
      "Ġow": 3835,
      "dom": 3836,
      "Ġpowers": 3837,
      "Ġtext": 3838,
      "Ġmarried": 3839,
      "Ġsenses": 3840,
      "Ġarist": 3841,
      "Ġevil": 3842,
      "Ġdragged": 3843,
      "Ġclosing": 3844,
      "Ġshadow": 3845,
      "omaru": 3846,
      "Ġdepart": 3847,
      "Ġbottle": 3848,
      "Ġloudly": 3849,
      "Ġpassing": 3850,
      "Ġchallen": 3851,
      "Ġdom": 3852,
      "Ġtwenty": 3853,
      "Ġadvantage": 3854,
      "Ġaristoc": 3855,
      "Ġeight": 3856,
      "Ġtear": 3857,
      "Ġcrystals": 3858,
      "Ġglasses": 3859,
      "ako": 3860,
      "ature": 3861,
      "uma": 3862,
      "Ġsettled": 3863,
      "aled": 3864,
      "Ġstage": 3865,
      "Ġreasons": 3866,
      "Ġflew": 3867,
      "Ġshoot": 3868,
      "Ġrecalled": 3869,
      "Ġphil": 3870,
      "Ġridiculous": 3871,
      "Ġmajesty": 3872,
      "Ġpotent": 3873,
      "Ġwaste": 3874,
      "istic": 3875,
      "Ġshower": 3876,
      "Ġhurried": 3877,
      "Ġren": 3878,
      "Ġshake": 3879,
      "Ġpersonality": 3880,
      "Ġfal": 3881,
      "Ġstruck": 3882,
      "Ġsesshomaru": 3883,
      "Ġfeed": 3884,
      "Ġhardly": 3885,
      "Ġawake": 3886,
      "ette": 3887,
      "Ġsuz": 3888,
      "Ġdiscuss": 3889,
      "Ġharsh": 3890,
      "Ġleader": 3891,
      "chan": 3892,
      "urious": 3893,
      "Ġprotest": 3894,
      "Ġrelic": 3895,
      "Ġspirit": 3896,
      "Ġimpro": 3897,
      "Ġlucky": 3898,
      "Ġmako": 3899,
      "Ġkur": 3900,
      "Ġbodies": 3901,
      "oooo": 3902,
      "Ġsides": 3903,
      "Ġdance": 3904,
      "Ġmov": 3905,
      "uu": 3906,
      "Ġreleased": 3907,
      "Ġrole": 3908,
      "Ġdecide": 3909,
      "Ġate": 3910,
      "Ġenter": 3911,
      "vern": 3912,
      "Ġswords": 3913,
      "vering": 3914,
      "Ġactual": 3915,
      "Ġforgive": 3916,
      "Ġpractically": 3917,
      "angel": 3918,
      "Ġappreciate": 3919,
      "umbling": 3920,
      "Ġgasped": 3921,
      "Ġbase": 3922,
      "rid": 3923,
      "omi": 3924,
      "Ġ\",": 3925,
      "Ġfish": 3926,
      "Ġhid": 3927,
      "Ġshame": 3928,
      "Ġrealizing": 3929,
      "Ġresting": 3930,
      "Ġbottom": 3931,
      "Ġcleared": 3932,
      "Ġamazing": 3933,
      "Ġbent": 3934,
      "Ġsetting": 3935,
      "rene": 3936,
      "Ġembr": 3937,
      "Ġsofa": 3938,
      "Ġtension": 3939,
      "Ġjoy": 3940,
      "Ġyukinon": 3941,
      "ians": 3942,
      "bling": 3943,
      "Ġaccident": 3944,
      "Ġsurprisingly": 3945,
      "Ġlosing": 3946,
      "Ġcapt": 3947,
      "Ġwished": 3948,
      "oured": 3949,
      "ounded": 3950,
      "Ġdisplay": 3951,
      "Ġitems": 3952,
      "Ġjoined": 3953,
      "Ġloss": 3954,
      "Ġstories": 3955,
      "Ġfacing": 3956,
      "ses": 3957,
      "Ġil": 3958,
      "vey": 3959,
      "Ġcore": 3960,
      "cent": 3961,
      "Ġoccur": 3962,
      "Ġsand": 3963,
      "ivid": 3964,
      "Ġhigher": 3965,
      "Ġthroughout": 3966,
      "iel": 3967,
      "Ġintim": 3968,
      "Ġpartner": 3969,
      "rest": 3970,
      "Ġregardless": 3971,
      "Ġaut": 3972,
      "Ġbatt": 3973,
      "Ġrisk": 3974,
      "Ġevangel": 3975,
      "Ġheavily": 3976,
      "Ġwooden": 3977,
      "venge": 3978,
      "Ġcross": 3979,
      "Ġshizuka": 3980,
      "Ġgrandmother": 3981,
      "Ġstudy": 3982,
      "Ġstrangely": 3983,
      "Ġdesperately": 3984,
      "Ġreass": 3985,
      "Ġplaces": 3986,
      "Ġtreated": 3987,
      "Ġcarrying": 3988,
      "Ġintent": 3989,
      "Ġcontem": 3990,
      "Ġbear": 3991,
      "Ġanywhere": 3992,
      "Ġsophi": 3993,
      "Ġapproaching": 3994,
      "Ġtos": 3995,
      "Ġdying": 3996,
      "Ġfest": 3997,
      "arm": 3998,
      "Ġ\".": 3999,
      "Ġtrick": 4000,
      "Ġlights": 4001,
      "Ġconfident": 4002,
      "Ġpressure": 4003,
      "Ġgard": 4004,
      "Ġwarmth": 4005,
      "Ġtool": 4006,
      "Ġfaced": 4007,
      "Ġleng": 4008,
      "Ġpier": 4009,
      "Ġstartled": 4010,
      "Ġexplan": 4011,
      "Ġwitness": 4012,
      "apped": 4013,
      "lly": 4014,
      "Ġdifference": 4015,
      "Ġgiant": 4016,
      "Ġguards": 4017,
      "Ġsasuke": 4018,
      "Ġwiped": 4019,
      "Ġslammed": 4020,
      "Ġloose": 4021,
      "Ġgoodby": 4022,
      "Ġknocked": 4023,
      "Ġkissed": 4024,
      "Ġsaf": 4025,
      "osity": 4026,
      "Ġantic": 4027,
      "Ġreluct": 4028,
      "Ġjoke": 4029,
      "Ġhasn": 4030,
      "Ġmovement": 4031,
      "Ġmonst": 4032,
      "ker": 4033,
      "Ġmana": 4034,
      "uses": 4035,
      "Ġsmiles": 4036,
      "unted": 4037,
      "chaff": 4038,
      "Ġconcl": 4039,
      "Ġtitan": 4040,
      "Ġblush": 4041,
      "Ġcop": 4042,
      "iently": 4043,
      "Ġstatement": 4044,
      "ference": 4045,
      "ront": 4046,
      "Ġ).": 4047,
      "iction": 4048,
      "step": 4049,
      "Ġgoal": 4050,
      "Ġlanded": 4051,
      "uten": 4052,
      "Ġthinks": 4053,
      "Ġdust": 4054,
      "Ġstorm": 4055,
      "Ġacknow": 4056,
      "Ġdegure": 4057,
      "Ġcondition": 4058,
      "osop": 4059,
      "Ġdisp": 4060,
      "Ġnames": 4061,
      "Ġ,'": 4062,
      "Ġease": 4063,
      "Ġtwice": 4064,
      "Ġfier": 4065,
      "Ġbecky": 4066,
      "Ġphilosop": 4067,
      "Ġdegurechaff": 4068,
      "Ġthrowing": 4069,
      "Ġly": 4070,
      "mission": 4071,
      "Ġhea": 4072,
      "Ġskills": 4073,
      "Ġnarrow": 4074,
      "Ġpace": 4075,
      "win": 4076,
      "Ġgrabbing": 4077,
      "Ġrout": 4078,
      "Ġship": 4079,
      "era": 4080,
      "Ġshat": 4081,
      "Ġsar": 4082,
      "Ġner": 4083,
      "Ġinu": 4084,
      "Ġsmoke": 4085,
      "Ġworks": 4086,
      "Ġcolonel": 4087,
      "Ġpra": 4088,
      "Ġelev": 4089,
      "Ġinvest": 4090,
      "Ġmagical": 4091,
      "Ġextremely": 4092,
      "Ġoi": 4093,
      "Ġjer": 4094,
      "Ġrelaxed": 4095,
      "Ġdistant": 4096,
      "ruct": 4097,
      "Ġuseless": 4098,
      "Ġembarrassment": 4099,
      "Ġintell": 4100,
      "Ġsearch": 4101,
      "Ġgar": 4102,
      "Ġbitch": 4103,
      "Ġling": 4104,
      "Ġrul": 4105,
      "iety": 4106,
      "Ġtrees": 4107,
      "Ġgrit": 4108,
      "Ġraising": 4109,
      "Ġdrive": 4110,
      "Ġwis": 4111,
      "Ġlaz": 4112,
      "Ġoppon": 4113,
      "Ġdefeat": 4114,
      "Ġchanging": 4115,
      "mates": 4116,
      "Ġleap": 4117,
      "Ġdetails": 4118,
      "Ġnowhere": 4119,
      "ob": 4120,
      "Ġyoki": 4121,
      "Ġunw": 4122,
      "Ġobl": 4123,
      "Ġterrif": 4124,
      "Ġcreated": 4125,
      "Ġbehavi": 4126,
      "moto": 4127,
      "Ġmyster": 4128,
      "Ġintense": 4129,
      "ikt": 4130,
      "Ġhappily": 4131,
      "Ġbasically": 4132,
      "Ġmaterials": 4133,
      "pend": 4134,
      "Ġsecurity": 4135,
      "Ġvikt": 4136,
      "por": 4137,
      "Ġbored": 4138,
      "itan": 4139,
      "Ġunkn": 4140,
      "Ġpolice": 4141,
      "Ġclaw": 4142,
      "Ġarc": 4143,
      "Ġorimoto": 4144,
      "Ġscent": 4145,
      "eld": 4146,
      "Ġlone": 4147,
      "Ġcontent": 4148,
      "Ġmiko": 4149,
      "Ġweapons": 4150,
      "Ġguil": 4151,
      "Ġram": 4152,
      "Ġgrowled": 4153,
      "Ġmaids": 4154,
      "Ġvillage": 4155,
      "Ġjean": 4156,
      "Ġrising": 4157,
      "Ġscreaming": 4158,
      "Ġmachines": 4159,
      "Ġpout": 4160,
      "ences": 4161,
      "cise": 4162,
      "Ġapproach": 4163,
      "::::": 4164,
      "Ġshy": 4165,
      "Ġacad": 4166,
      "Ġsource": 4167,
      "Ġremoved": 4168,
      "Ġtarn": 4169,
      "Ġsell": 4170,
      "Ġcharacters": 4171,
      "Ġride": 4172,
      "Ġraise": 4173,
      "Ġoriginally": 4174,
      "Ġ!'": 4175,
      "Ġlieuten": 4176,
      "Ġilena": 4177,
      "Ġsummer": 4178,
      "Ġ.\"\"": 4179,
      "Ġblock": 4180,
      "Ġhistory": 4181,
      "Ġharm": 4182,
      "Ġhonor": 4183,
      "Ġsea": 4184,
      "Ġhumanity": 4185,
      "Ġsteel": 4186,
      "Ġpicking": 4187,
      "Ġglancing": 4188,
      "Ġdemanded": 4189,
      "Ġkaori": 4190,
      "Ġmage": 4191,
      "yu": 4192,
      "Ġhappiness": 4193,
      "Ġawkwardly": 4194,
      "Ġflin": 4195,
      "Ġinfl": 4196,
      "Ġbi": 4197,
      "Ġmanage": 4198,
      "Ġattitude": 4199,
      "wardly": 4200,
      "Ġextend": 4201,
      "ppy": 4202,
      "Ġmult": 4203,
      "Ġfixed": 4204,
      "Ġfian": 4205,
      "Ġpaid": 4206,
      "aly": 4207,
      "ground": 4208,
      "aken": 4209,
      "Ġrevealed": 4210,
      "Ġplus": 4211,
      "Ġoverw": 4212,
      "Ġdistur": 4213,
      "pse": 4214,
      "Ġcrystal": 4215,
      "Ġdim": 4216,
      "Ġissue": 4217,
      "aming": 4218,
      "Ġpromised": 4219,
      "oriya": 4220,
      "Ġiron": 4221,
      "Ġaunt": 4222,
      "Ġpathetic": 4223,
      "Ġcustom": 4224,
      "den": 4225,
      "Ġviktoriya": 4226,
      "uru": 4227,
      "Ġmental": 4228,
      "Ġmask": 4229,
      "Ġcovering": 4230,
      "Ġcooking": 4231,
      "Ġpleasure": 4232,
      "Ġintrodu": 4233,
      "ulf": 4234,
      "Ġnui": 4235,
      "Ġsplit": 4236,
      "Ġwonderful": 4237,
      "Ġdestroyed": 4238,
      "Ġguilty": 4239,
      "lli": 4240,
      "Ġtarnished": 4241,
      "rib": 4242,
      "Ġplate": 4243,
      "Ġcow": 4244,
      "Ġtoji": 4245,
      "dding": 4246,
      "asha": 4247,
      "Ġstunned": 4248,
      "Ġugh": 4249,
      "Ġstretched": 4250,
      "Ġsafety": 4251,
      "Ġsensation": 4252,
      "Ġcompet": 4253,
      "Ġsurvive": 4254,
      "Ġtipping": 4255,
      "Ġunderne": 4256,
      "Ġlangu": 4257,
      "Ġunderneath": 4258,
      "eric": 4259,
      "Ġsoci": 4260,
      "Ġunus": 4261,
      "Ġshoes": 4262,
      "Ġsacred": 4263,
      "Ġstruggled": 4264,
      "Ġpage": 4265,
      "Ġsatisfied": 4266,
      "Ġswit": 4267,
      "Ġpainful": 4268,
      "Ġtense": 4269,
      "Ġpointing": 4270,
      "Ġgames": 4271,
      "Ġenjoying": 4272,
      "ament": 4273,
      "Ġeager": 4274,
      "Ġlieutenant": 4275,
      "Ġdetect": 4276,
      "Ġchlo": 4277,
      "Ġupper": 4278,
      "Ġinnocent": 4279,
      "Ġclo": 4280,
      "Ġinqu": 4281,
      "Ġult": 4282,
      "Ġdefense": 4283,
      "Ġfestival": 4284,
      "Ġfianc": 4285,
      "Ġopinion": 4286,
      "Ġwed": 4287,
      "rily": 4288,
      "issed": 4289,
      "Ġdism": 4290,
      "Ġexplos": 4291,
      "Ġmatters": 4292,
      "Ġpause": 4293,
      "Ġdreams": 4294,
      "Ġcrit": 4295,
      "Ġerwin": 4296,
      "Ġoverwhel": 4297,
      "Ġimagined": 4298,
      "Ġpilots": 4299,
      "Ġcircum": 4300,
      "Ġforces": 4301,
      "ify": 4302,
      "Ġparts": 4303,
      "Ġencoun": 4304,
      "Ġstam": 4305,
      "Ġaffection": 4306,
      "Ġaura": 4307,
      "Ġast": 4308,
      "Ġexplanation": 4309,
      "Ġkam": 4310,
      "Ġcoat": 4311,
      "Ġescaped": 4312,
      "Ġtopic": 4313,
      "Ġromantic": 4314,
      "Ġstreets": 4315,
      "Ġlength": 4316,
      "Ġconcent": 4317,
      "Ġshield": 4318,
      "Ġshape": 4319,
      "Ġlikes": 4320,
      "Ġceiling": 4321,
      "Ġjour": 4322,
      "Ġoption": 4323,
      "Ġplenty": 4324,
      "Ġprove": 4325,
      "while": 4326,
      "Ġseemingly": 4327,
      "Ġgroaned": 4328,
      "Ġyuki": 4329,
      "Ġtied": 4330,
      "Ġcard": 4331,
      "erem": 4332,
      "Ġconfidence": 4333,
      "Ġregular": 4334,
      "Ġclock": 4335,
      "Ġcuriosity": 4336,
      "ec": 4337,
      "friend": 4338,
      "jo": 4339,
      "Ġrecognized": 4340,
      "Ġthrown": 4341,
      "Ġnaked": 4342,
      "Ġcollar": 4343,
      "Ġstopping": 4344,
      "Ġsnorted": 4345,
      "Ġcreature": 4346,
      "Ġconcentr": 4347,
      "Ġowner": 4348,
      "Ġpressing": 4349,
      "Ġdetermined": 4350,
      "Ġbreast": 4351,
      "Ġstatus": 4352,
      "Ġduty": 4353,
      "Ġfootstep": 4354,
      "Ġameric": 4355,
      "Ġscan": 4356,
      "Ġfroze": 4357,
      "Ġyellow": 4358,
      "Ġthumb": 4359,
      "Ġsacri": 4360,
      "Ġinvent": 4361,
      "Ġrecognize": 4362,
      "Ġgoodbye": 4363,
      "Ġbound": 4364,
      "omed": 4365,
      "Ġbased": 4366,
      "Ġloner": 4367,
      "time": 4368,
      "ruction": 4369,
      "Ġgh": 4370,
      "Ġhina": 4371,
      "ateg": 4372,
      "Ġcolle": 4373,
      "for": 4374,
      "Ġvague": 4375,
      "ora": 4376,
      "Ġsmaller": 4377,
      "Ġcomput": 4378,
      "Ġtend": 4379,
      "Ġcomr": 4380,
      "Ġrubbing": 4381,
      "Ġmages": 4382,
      "Ġcorners": 4383,
      "Ġofficer": 4384,
      "Ġbastard": 4385,
      "asy": 4386,
      "Ġshrug": 4387,
      "Ġroof": 4388,
      "Ġprodu": 4389,
      "Ġgrate": 4390,
      "Ġtrack": 4391,
      "Ġhut": 4392,
      "Ġrush": 4393,
      "Ġdeserve": 4394,
      "Ġtask": 4395,
      "Ġbothered": 4396,
      "ishment": 4397,
      "Ġnotes": 4398,
      "Ġterms": 4399,
      "Ġresol": 4400,
      "Ġpleased": 4401,
      "Ġhorrible": 4402,
      "Ġ',": 4403,
      "Ġdod": 4404,
      "Ġgarden": 4405,
      "Ġstars": 4406,
      "Ġcircumst": 4407,
      "Ġvoices": 4408,
      "ichi": 4409,
      "Ġpossibility": 4410,
      "Ġet": 4411,
      "Ġconvinced": 4412,
      "Ġpod": 4413,
      "Ġfootsteps": 4414,
      "Ġess": 4415,
      "Ġshir": 4416,
      "Ġtouching": 4417,
      "Ġforcing": 4418,
      "ressive": 4419,
      "ordin": 4420,
      "Ġcaut": 4421,
      "hem": 4422,
      "Ġleaves": 4423,
      "Ġcele": 4424,
      "Ġrate": 4425,
      "Ġabrupt": 4426,
      "Ġassist": 4427,
      "Ġinwardly": 4428,
      "Ġmarry": 4429,
      "Ġhesitation": 4430,
      "Ġinjured": 4431,
      "Ġoccup": 4432,
      "Ġclosely": 4433,
      "po": 4434,
      "Ġcig": 4435,
      "Ġnee": 4436,
      "Ġstub": 4437,
      "Ġpsy": 4438,
      "arch": 4439,
      "Ġcollapsed": 4440,
      "Ġenv": 4441,
      "Ġpants": 4442,
      "Ġhopefully": 4443,
      "Ġrang": 4444,
      "unate": 4445,
      "Ġanswers": 4446,
      "Ġindivid": 4447,
      "Ġleading": 4448,
      "Ġdisbelie": 4449,
      "Ġplain": 4450,
      "mend": 4451,
      "Ġriku": 4452,
      "Ġnur": 4453,
      "Ġheight": 4454,
      "Ġaccompan": 4455,
      "Ġpunch": 4456,
      "atively": 4457,
      "Ġwanna": 4458,
      "Ġurge": 4459,
      "Ġpleasant": 4460,
      "Ġtamon": 4461,
      "Ġroll": 4462,
      "Ġasks": 4463,
      "Ġtrave": 4464,
      "Ġdrawn": 4465,
      "Ġsarc": 4466,
      "Ġstream": 4467,
      "Ġcasually": 4468,
      "Ġreco": 4469,
      "Ġaccording": 4470,
      "rowed": 4471,
      "Ġfake": 4472,
      "Ġexcit": 4473,
      "ressing": 4474,
      "Ġremar": 4475,
      "Ġadvice": 4476,
      "Ġexchange": 4477,
      "Ġbite": 4478,
      "Ġfil": 4479,
      "Ġki": 4480,
      "Ġmisunder": 4481,
      "Ġsib": 4482,
      "Ġsymp": 4483,
      "Ġklax": 4484,
      "Ġscr": 4485,
      "ela": 4486,
      "Ġclicked": 4487,
      "Ġhandsome": 4488,
      "itha": 4489,
      "Ġtent": 4490,
      "aaaa": 4491,
      "aying": 4492,
      "Ġlimb": 4493,
      "Ġlux": 4494,
      "Ġsearching": 4495,
      "Ġliterally": 4496,
      "Ġevangelion": 4497,
      "Ġant": 4498,
      "Ġblushed": 4499,
      "Ġanime": 4500,
      "Ġexhausted": 4501,
      "Ġphilosopher": 4502,
      "Ġfat": 4503,
      "Ġentry": 4504,
      "Ġ),": 4505,
      "Ġsociety": 4506,
      "Ġchrist": 4507,
      "Ġprepare": 4508,
      "Ġayan": 4509,
      "Ġghost": 4510,
      "Ġcrack": 4511,
      "Ġmarriage": 4512,
      "Ġsentence": 4513,
      "Ġpopped": 4514,
      "cer": 4515,
      "Ġsibling": 4516,
      "Ġirene": 4517,
      "yn": 4518,
      "Ġsole": 4519,
      "Ġpanic": 4520,
      "Ġgam": 4521,
      "rier": 4522,
      "xxxxxxxx": 4523,
      "Ġrage": 4524,
      "Ġfrustration": 4525,
      "Ġkat": 4526,
      "ural": 4527,
      "Ġgiggled": 4528,
      "uria": 4529,
      "Ġnumbers": 4530,
      "Ġgut": 4531,
      "awa": 4532,
      "Ġgazed": 4533,
      "Ġbew": 4534,
      "oted": 4535,
      "Ġshudd": 4536,
      "Ġsurrounded": 4537,
      "Ġtabitha": 4538,
      "Ġcourage": 4539,
      "Ġsuggested": 4540,
      "Ġachieve": 4541,
      "Ġannoyance": 4542,
      "eled": 4543,
      "Ġbridge": 4544,
      "well": 4545,
      "Ġpaying": 4546,
      "Ġchuckle": 4547,
      "?\"": 4548,
      "Ġpurple": 4549,
      "Ġdrug": 4550,
      "Ġcourt": 4551,
      "field": 4552,
      "Ġrise": 4553,
      "Ġjacket": 4554,
      "Ġmuscles": 4555,
      "Ġyouth": 4556,
      "Ġdesperate": 4557,
      "uted": 4558,
      "Ġgilg": 4559,
      "Ġsuperior": 4560,
      "Ġstern": 4561,
      "pless": 4562,
      "Ġbadly": 4563,
      "ury": 4564,
      "Ġfavorite": 4565,
      "Ġdir": 4566,
      "Ġboss": 4567,
      "Ġcrap": 4568,
      "agger": 4569,
      "eg": 4570,
      "Ġstepping": 4571,
      "Ġtherefore": 4572,
      "Ġhast": 4573,
      "Ġretreat": 4574,
      "Ġquir": 4575,
      "Ġdisappointed": 4576,
      "amesh": 4577,
      "Ġgilgamesh": 4578,
      "Ġglaring": 4579,
      "Ġhyster": 4580,
      "ios": 4581,
      "rell": 4582,
      "Ġwrink": 4583,
      "Ġfellow": 4584,
      "Ġcommunic": 4585,
      "Ġsnar": 4586,
      "Ġcorrid": 4587,
      "Ġultim": 4588,
      "Ġvers": 4589,
      "Ġneut": 4590,
      "ological": 4591,
      "bert": 4592,
      "Ġanticip": 4593,
      "Ġfountain": 4594,
      "Ġbang": 4595,
      "Ġkats": 4596,
      "Ġsag": 4597,
      "Ġwizard": 4598,
      "Ġgulped": 4599,
      "Ġindividual": 4600,
      "Ġski": 4601,
      "Ġdeclared": 4602,
      "Ġpatted": 4603,
      "Ġfloating": 4604,
      "Ġsurrounding": 4605,
      "Ġexcitement": 4606,
      "Ġvic": 4607,
      "Ġintellig": 4608,
      "hus": 4609,
      "Ġnine": 4610,
      "Ġcurled": 4611,
      "Ġgovern": 4612,
      "Ġpapa": 4613,
      "Ġuseful": 4614,
      "osen": 4615,
      "Ġstyle": 4616,
      "hips": 4617,
      "Ġcursed": 4618,
      "Ġeditor": 4619,
      "Ġpractice": 4620,
      "Ġlif": 4621,
      "Ġallowing": 4622,
      "Ġboyfriend": 4623,
      "Ġvisible": 4624,
      "Ġspoken": 4625,
      "Ġtele": 4626,
      "Ġstarts": 4627,
      "Ġdomin": 4628,
      "Ġcelebr": 4629,
      "Ġsucceed": 4630,
      "Ġmovie": 4631,
      "Ġconfirm": 4632,
      "Ġens": 4633,
      "Ġwindows": 4634,
      "Ġdawn": 4635,
      "Ġasha": 4636,
      "Ġshri": 4637,
      "verse": 4638,
      "bell": 4639,
      "Ġinflu": 4640,
      "bl": 4641,
      "Ġassume": 4642,
      "gest": 4643,
      "Ġmas": 4644,
      "Ġvisha": 4645,
      "Ġlou": 4646,
      "Ġorange": 4647,
      "Ġcutting": 4648,
      "Ġrested": 4649,
      "port": 4650,
      "Ġdece": 4651,
      "Ġgoro": 4652,
      "aret": 4653,
      "Ġdeeper": 4654,
      "Ġnamed": 4655,
      "Ġprior": 4656,
      "Ġswear": 4657,
      "Ġrequired": 4658,
      "Ġsolid": 4659,
      "Ġeleg": 4660,
      "Ġgodd": 4661,
      "Ġglo": 4662,
      "Ġakagi": 4663,
      "Ġgap": 4664,
      "ocol": 4665,
      "Ġpotter": 4666,
      "Ġcreate": 4667,
      "Ġencour": 4668,
      "vert": 4669,
      "Ġcontempl": 4670,
      "Ġfrank": 4671,
      "Ġblanket": 4672,
      "str": 4673,
      "Ġbeauty": 4674,
      "Ġdeny": 4675,
      "Ġending": 4676,
      "Ġelevator": 4677,
      "Ġlanguage": 4678,
      "Ġinsult": 4679,
      "Ġbewild": 4680,
      "Ġshopping": 4681,
      "Ġgrasp": 4682,
      "bu": 4683,
      "Ġtravel": 4684,
      "iance": 4685,
      "Ġcruel": 4686,
      "Ġboard": 4687,
      "Ġswung": 4688,
      "Ġnick": 4689,
      "osaur": 4690,
      "ption": 4691,
      "Ġunivers": 4692,
      "Ġrooms": 4693,
      "Ġneutral": 4694,
      "Ġwinter": 4695,
      "iest": 4696,
      "Ġmeanwhile": 4697,
      "Ġflashed": 4698,
      "Ġunknown": 4699,
      "Ġnoted": 4700,
      "Ġrelease": 4701,
      "Ġep": 4702,
      "Ġfamil": 4703,
      "Ġpattern": 4704,
      "Ġbubble": 4705,
      "cks": 4706,
      "Ġfrozen": 4707,
      "Ġconclusion": 4708,
      "Ġkar": 4709,
      "Ġdrunk": 4710,
      "Ġdesign": 4711,
      "Ġspin": 4712,
      "Ġchosen": 4713,
      "Ġplacing": 4714,
      "Ġbreathe": 4715,
      "Ġreviews": 4716,
      "Ġformed": 4717,
      "Ġbattlefield": 4718,
      "Ġattract": 4719,
      "Ġpul": 4720,
      "Ġburied": 4721,
      "Ġdamian": 4722,
      "Ġinspect": 4723,
      "Ġbleed": 4724,
      "Ġcircumstances": 4725,
      "Ġshift": 4726,
      "Ġintended": 4727,
      "Ġhelpless": 4728,
      "Ġrevealing": 4729,
      "Ġelb": 4730,
      "Ġangrily": 4731,
      "Ġamb": 4732,
      "nis": 4733,
      "uous": 4734,
      "Ġarturia": 4735,
      "sequ": 4736,
      "Ġfrag": 4737,
      "Ġgesture": 4738,
      "Ġpotential": 4739,
      "Ġciv": 4740,
      "Ġarmin": 4741,
      "Ġsly": 4742,
      "Ġtitle": 4743,
      "Ġtip": 4744,
      "ila": 4745,
      "Ġlogic": 4746,
      "Ġwash": 4747,
      "Ġcomplain": 4748,
      "Ġopponent": 4749,
      "Ġclar": 4750,
      "Ġperio": 4751,
      "Ġpity": 4752,
      "Ġroark": 4753,
      "Ġmillion": 4754,
      "Ġsigns": 4755,
      "Ġparticip": 4756,
      "Ġnoticing": 4757,
      "Ġhorror": 4758,
      "Ġflower": 4759,
      "intment": 4760,
      "Ġneckl": 4761,
      "Ġpretending": 4762,
      "Ġpolitical": 4763,
      "Ġpark": 4764,
      "Ġmulti": 4765,
      "Ġdirty": 4766,
      "guri": 4767,
      "Ġmentally": 4768,
      "Ġayanami": 4769,
      "Ġmonsters": 4770,
      "Ġamused": 4771,
      "Ġcul": 4772,
      "Ġkay": 4773,
      "shi": 4774,
      "Ġber": 4775,
      "Ġcraw": 4776,
      "Ġexec": 4777,
      "Ġlyd": 4778,
      "Ġdealing": 4779,
      "Ġnecklace": 4780,
      "Ġcult": 4781,
      "Ġbigger": 4782,
      "Ġtwist": 4783,
      "Ġspring": 4784,
      "Ġemerg": 4785,
      "Ġtrembled": 4786,
      "umed": 4787,
      "Ġprod": 4788,
      "Ġbackwards": 4789,
      "Ġacademy": 4790,
      "Ġlydios": 4791,
      "Ġrefuse": 4792,
      "Ġtemper": 4793,
      "Ġanxiety": 4794,
      "Ġhole": 4795,
      "Ġanswering": 4796,
      "ney": 4797,
      "Ġpoke": 4798,
      "Ġassass": 4799,
      "Ġfuy": 4800,
      "Ġagreement": 4801,
      "Ġdisbelief": 4802,
      "hy": 4803,
      "hic": 4804,
      "Ġfreed": 4805,
      "iable": 4806,
      "Ġtrace": 4807,
      "Ġaccess": 4808,
      "ifa": 4809,
      "Ġanxious": 4810,
      "Ġdata": 4811,
      "irm": 4812,
      "Ġsuffer": 4813,
      "Ġnan": 4814,
      "Ġsurvi": 4815,
      "mate": 4816,
      "Ġsip": 4817,
      "Ġimpression": 4818,
      "Ġindic": 4819,
      "Ġsuffering": 4820,
      "Ġembarrassing": 4821,
      "Ġbran": 4822,
      "Ġswift": 4823,
      "Ġquar": 4824,
      "Ġgain": 4825,
      "Ġunconscious": 4826,
      "Ġador": 4827,
      "Ġba": 4828,
      "Ġsched": 4829,
      "illy": 4830,
      "Ġabandoned": 4831,
      "Ġannounced": 4832,
      "Ġvictory": 4833,
      "Ġclou": 4834,
      "Ġmovements": 4835,
      "Ġfed": 4836,
      "Ġsounding": 4837,
      "Ġtaller": 4838,
      "Ġfranxx": 4839,
      "Ġ^": 4840,
      "Ġdene": 4841,
      "emies": 4842,
      "Ġlocation": 4843,
      "Ġincredibly": 4844,
      "Ġdrinking": 4845,
      "Ġneat": 4846,
      "Ġtail": 4847,
      "Ġburned": 4848,
      "Ġefforts": 4849,
      "Ġresemb": 4850,
      "Ġrapidly": 4851,
      "Ġklaxosaur": 4852,
      "reg": 4853,
      "ples": 4854,
      "Ġslept": 4855,
      "Ġtifa": 4856,
      "Ġflight": 4857,
      "Ġteasing": 4858,
      "Ġgrumbled": 4859,
      "Ġdeneve": 4860,
      "Ġordinary": 4861,
      "Ġattempted": 4862,
      "Ġrumi": 4863,
      "Ġcivil": 4864,
      "za": 4865,
      "Ġavail": 4866,
      "lies": 4867,
      "ketsu": 4868,
      "Ġweakness": 4869,
      "Ġ!?\"": 4870,
      "Ġnin": 4871,
      "Ġmeat": 4872,
      "omb": 4873,
      "Ġassa": 4874,
      "Ġhorse": 4875,
      "Ġrabbit": 4876,
      "Ġstubborn": 4877,
      "Ġshadows": 4878,
      "Ġrolling": 4879,
      "ousei": 4880,
      "Ġbuildings": 4881,
      "Ġlift": 4882,
      "Ġhitting": 4883,
      "Ġinventory": 4884,
      "Ġgrateful": 4885,
      "Ġrat": 4886,
      "Ġechoed": 4887,
      "ka": 4888,
      "Ġhissed": 4889,
      "Ġpant": 4890,
      "Ġelect": 4891,
      "Ġkousei": 4892,
      "Ġvon": 4893,
      "Ġsque": 4894,
      "board": 4895,
      "Ġdesce": 4896,
      "Ġtill": 4897,
      "Ġglim": 4898,
      "Ġideas": 4899,
      "Ġconfirmed": 4900,
      "Ġlonely": 4901,
      "acle": 4902,
      "verted": 4903,
      "Ġmanga": 4904,
      "Ġyorha": 4905,
      "Ġenemies": 4906,
      "Ġpermission": 4907,
      "Ġdelight": 4908,
      "Ġrestaur": 4909,
      "Ġemer": 4910,
      "Ġbegun": 4911,
      "Ġfoolish": 4912,
      "Ġtrailed": 4913,
      "Ġded": 4914,
      "Ġillusion": 4915,
      "Ġearn": 4916,
      "Ġterror": 4917,
      "Ġcalmed": 4918,
      "Ġsteady": 4919,
      "Ġexperienced": 4920,
      "rehe": 4921,
      "Ġstrateg": 4922,
      "Ġfolded": 4923,
      "Ġarrog": 4924,
      "Ġframe": 4925,
      "Ġpuzzled": 4926,
      "Ġglow": 4927,
      "Ġmisaki": 4928,
      "lished": 4929,
      "Ġsniff": 4930,
      "Ġrif": 4931,
      "Ġenthus": 4932,
      "Ġgy": 4933,
      "isters": 4934,
      "Ġimpat": 4935,
      "Ġcomplex": 4936,
      "Ġbill": 4937,
      "Ġlies": 4938,
      "Ġstudying": 4939,
      "my": 4940,
      "Ġnorth": 4941,
      "Ġfashi": 4942,
      "uit": 4943,
      "Ġserved": 4944,
      "ishi": 4945,
      "ule": 4946,
      "Ġspill": 4947,
      "Ġbalance": 4948,
      "Ġgrant": 4949,
      "Ġgrass": 4950,
      "Ġdouble": 4951,
      "Ġdragons": 4952,
      "itation": 4953,
      "Ġspark": 4954,
      "Ġacted": 4955,
      "und": 4956,
      "Ġbehavior": 4957,
      "Ġhips": 4958,
      "mber": 4959,
      "Ġcompleted": 4960,
      "omp": 4961,
      "Ġgreater": 4962,
      "Ġhyp": 4963,
      "Ġspecific": 4964,
      "Ġassumed": 4965,
      "Ġshining": 4966,
      "Ġpreparing": 4967,
      "Ġsneak": 4968,
      "Ġfic": 4969,
      "Ġteach": 4970,
      "Ġblink": 4971,
      "Ġcontinuing": 4972,
      "Ġsuspect": 4973,
      "Ġtwitched": 4974,
      "Ġpositive": 4975,
      "Ġsuzaku": 4976,
      "Ġcontain": 4977,
      "Ġpour": 4978,
      "Ġknee": 4979,
      "Ġbunch": 4980,
      "Ġincrease": 4981,
      "Ġreplaced": 4982,
      "Ġwitch": 4983,
      "Ġinuy": 4984,
      "Ġinvestig": 4985,
      "Ġspare": 4986,
      "Ġscoffed": 4987,
      "stairs": 4988,
      "Ġinuyasha": 4989,
      "Ġeverywhere": 4990,
      "Ġavoiding": 4991,
      "anced": 4992,
      "ulation": 4993,
      "iping": 4994,
      "Ġselfish": 4995,
      "Ġsleeve": 4996,
      "Ġdeliber": 4997,
      "Ġtaught": 4998,
      "Ġboring": 4999,
      "Ġfib": 5000,
      "Ġpound": 5001,
      "Ġrobe": 5002,
      "Ġfriendship": 5003,
      "Ġconce": 5004,
      "Ġmoan": 5005,
      "Ġmode": 5006,
      "Ġchildish": 5007,
      "Ġglances": 5008,
      "Ġspine": 5009,
      "Ġslip": 5010,
      "Ġsection": 5011,
      "Ġsecretly": 5012,
      "Ġstruggling": 5013,
      "Ġamuse": 5014,
      "Ġlovely": 5015,
      "Ġcommented": 5016,
      "Ġscrew": 5017,
      "Ġincluding": 5018,
      "iven": 5019,
      "ulted": 5020,
      "Ġstrang": 5021,
      "aling": 5022,
      "Ġisshin": 5023,
      "Ġabruptly": 5024,
      "Ġug": 5025,
      "Ġadam": 5026,
      "Ġofficial": 5027,
      "acting": 5028,
      "Ġfurrowed": 5029,
      "Ġconstantly": 5030,
      "Ġunusual": 5031,
      "Ġbeating": 5032,
      "Ġfaded": 5033,
      "lyn": 5034,
      "Ġapologized": 5035,
      "Ġfab": 5036,
      "Ġblades": 5037,
      "Ġgranted": 5038,
      "Ġwashed": 5039,
      "mas": 5040,
      "Ġproceeded": 5041,
      "Ġcompliment": 5042,
      "Ġpu": 5043,
      "Ġscold": 5044,
      "Ġextent": 5045,
      "Ġperiod": 5046,
      "Ġblushing": 5047,
      "back": 5048,
      "Ġattacked": 5049,
      "edy": 5050,
      "uttered": 5051,
      "Ġgle": 5052,
      "Ġliqu": 5053,
      "Ġautom": 5054,
      "Ġsink": 5055,
      "Ġumm": 5056,
      "hol": 5057,
      "Ġlibr": 5058,
      "Ġhysteria": 5059,
      "Ġagg": 5060,
      "Ġsuspected": 5061,
      "Ġalb": 5062,
      "Ġsora": 5063,
      "Ġlarger": 5064,
      "atically": 5065,
      "Ġlately": 5066,
      "Ġfairly": 5067,
      "Ġcatching": 5068,
      "Ġcough": 5069,
      "ito": 5070,
      "Ġbrows": 5071,
      "Ġfuyut": 5072,
      "Ġattacks": 5073,
      "Ġhm": 5074,
      "eness": 5075,
      "Ġfaith": 5076,
      "Ġobtain": 5077,
      "ita": 5078,
      "Ġdiscovered": 5079,
      "Ġinner": 5080,
      "Ġinvited": 5081,
      "Ġkingdom": 5082,
      "ball": 5083,
      "Ġsaika": 5084,
      "Ġidentity": 5085,
      "Ġembrace": 5086,
      "fu": 5087,
      "zz": 5088,
      "Ġbloody": 5089,
      "idding": 5090,
      "Ġinformed": 5091,
      "Ġafterwards": 5092,
      "iring": 5093,
      "Ġguests": 5094,
      "Ġdaz": 5095,
      "ulated": 5096,
      "Ġkissing": 5097,
      "Ġentering": 5098,
      "Ġtact": 5099,
      "Ġresistance": 5100,
      "Ġrotten": 5101,
      "Ġbench": 5102,
      "Ġwrote": 5103,
      "ss": 5104,
      "priate": 5105,
      "Ġsooner": 5106,
      "Ġbones": 5107,
      "Ġaid": 5108,
      "Ġblunt": 5109,
      "Ġgovernment": 5110,
      "loy": 5111,
      "Ġscra": 5112,
      "gu": 5113,
      "Ġ_": 5114,
      "Ġforeign": 5115,
      "Ġtotal": 5116,
      "Ġnud": 5117,
      "orter": 5118,
      "vere": 5119,
      "Ġgray": 5120,
      "Ġdisappear": 5121,
      "Ġremembering": 5122,
      "Ġpeaceful": 5123,
      "Ġtightened": 5124,
      "Ġnodding": 5125,
      "Ġcorridor": 5126,
      "Ġemergency": 5127,
      "Ġpile": 5128,
      "Ġdining": 5129,
      "Ġsafely": 5130,
      "Ġcomplicated": 5131,
      "Ġrevenge": 5132,
      "Ġstir": 5133,
      "Ġoutfit": 5134,
      "Ġbond": 5135,
      "Ġrend": 5136,
      "Ġtouji": 5137,
      "mare": 5138,
      "Ġresponsible": 5139,
      "hia": 5140,
      "Ġalchemist": 5141,
      "Ġwaving": 5142,
      "Ġdread": 5143,
      "Ġbord": 5144,
      "Ġcora": 5145,
      "Ġdefeated": 5146,
      "rel": 5147,
      "uro": 5148,
      "Ġseated": 5149,
      "Ġinev": 5150,
      "Ġsomebody": 5151,
      "Ġinsisted": 5152,
      "Ġheaven": 5153,
      "eling": 5154,
      "Ġworn": 5155,
      "Ġcorps": 5156,
      "Ġbroad": 5157,
      "Ġdelicious": 5158,
      "Ġinevit": 5159,
      "Ġelder": 5160,
      "Ġdivine": 5161,
      "rain": 5162,
      "wed": 5163,
      "Ġlan": 5164,
      "Ġtapped": 5165,
      "Ġtur": 5166,
      "Ġrules": 5167,
      "Ġcong": 5168,
      "Ġquestioned": 5169,
      "Ġcaf": 5170,
      "Ġresults": 5171,
      "Ġfierce": 5172,
      "Ġglowing": 5173,
      "Ġemotional": 5174,
      "Ġsilly": 5175,
      "asc": 5176,
      "Ġchanges": 5177,
      "attered": 5178,
      "Ġcock": 5179,
      "Ġflow": 5180,
      "Ġpassion": 5181,
      "Ġfulf": 5182,
      "Ġobserved": 5183,
      "Ġchecking": 5184,
      "Ġdistracted": 5185,
      "lls": 5186,
      "Ġslightest": 5187,
      "Ġpapers": 5188,
      "Ġheroine": 5189,
      "Ġbree": 5190,
      "Ġmart": 5191,
      "Ġflaw": 5192,
      "Ġexchanged": 5193,
      "Ġfibers": 5194,
      "Ġyoukai": 5195,
      "Ġclasses": 5196,
      "Ġegg": 5197,
      "Ġconnection": 5198,
      "Ġnathan": 5199,
      "Ġchocol": 5200,
      "Ġhal": 5201,
      "Ġdirt": 5202,
      "Ġculp": 5203,
      "Ġros": 5204,
      "Ġjudging": 5205,
      "Ġmeasure": 5206,
      "Ġends": 5207,
      "Ġconvince": 5208,
      "Ġrefer": 5209,
      "ode": 5210,
      "Ġdiss": 5211,
      "Ġblast": 5212,
      "Ġbru": 5213,
      "Ġannie": 5214,
      "Ġlimit": 5215,
      "Ġunp": 5216,
      "Ġkaworu": 5217,
      "\"*": 5218,
      "Ġabilities": 5219,
      "Ġunits": 5220,
      "Ġspun": 5221,
      "Ġbrushed": 5222,
      "anged": 5223,
      "Ġsadness": 5224,
      "Ġpossessed": 5225,
      "Ġheh": 5226,
      "Ġplant": 5227,
      "Ġsaving": 5228,
      "Ġticket": 5229,
      "Ġestab": 5230,
      "Ġweather": 5231,
      "Ġamusement": 5232,
      "Ġbon": 5233,
      "Ġourselves": 5234,
      "Ġbless": 5235,
      "Ġspending": 5236,
      "Ġuncertain": 5237,
      "Ġsighing": 5238,
      "Ġsophie": 5239,
      "Ġasc": 5240,
      "umble": 5241,
      "Ġemploy": 5242,
      "uries": 5243,
      "inium": 5244,
      "omes": 5245,
      "Ġstal": 5246,
      "Ġzor": 5247,
      "Ġtransform": 5248,
      "hod": 5249,
      "Ġsin": 5250,
      "astically": 5251,
      "Ġdropping": 5252,
      "Ġkaoru": 5253,
      "Ġcasual": 5254,
      "Ġsiblings": 5255,
      "Ġlied": 5256,
      "Ġsaber": 5257,
      "Ġbetray": 5258,
      "ffered": 5259,
      "minal": 5260,
      "Ġcynt": 5261,
      "Ġwedding": 5262,
      "Ġdisgu": 5263,
      "Ġangels": 5264,
      "Ġ.)": 5265,
      "Ġcynthia": 5266,
      "Ġthigh": 5267,
      "Ġprice": 5268,
      "Ġcloth": 5269,
      "sion": 5270,
      "Ġtun": 5271,
      "Ġrich": 5272,
      "Ġtort": 5273,
      "Ġdisl": 5274,
      "Ġmic": 5275,
      "Ġsadly": 5276,
      "Ġnods": 5277,
      "Ġtwin": 5278,
      "Ġrecover": 5279,
      "Ġthor": 5280,
      "Ġheroes": 5281,
      "Ġanimal": 5282,
      "Ġgrey": 5283,
      "Ġbrightly": 5284,
      "Ġthankfully": 5285,
      "Ġproof": 5286,
      "Ġcollected": 5287,
      "Ġsuffered": 5288,
      "Ġexit": 5289,
      "Ġengine": 5290,
      "hhhh": 5291,
      "Ġnic": 5292,
      "Ġthreatening": 5293,
      "Ġcurse": 5294,
      "tling": 5295,
      "ww": 5296,
      "Ġdess": 5297,
      "ional": 5298,
      "Ġcrims": 5299,
      "la": 5300,
      "ology": 5301,
      "Ġregarding": 5302,
      "Ġlibrary": 5303,
      "Ġconstant": 5304,
      "Ġyuna": 5305,
      "Ġunple": 5306,
      "Ġshirou": 5307,
      "Ġinha": 5308,
      "Ġtrash": 5309,
      "Ġinsist": 5310,
      "Ġunsure": 5311,
      "Ġsheer": 5312,
      "Ġserve": 5313,
      "Ġflushed": 5314,
      "Ġenglish": 5315,
      "Ġmethod": 5316,
      "Ġvictim": 5317,
      "Ġfabric": 5318,
      "Ġcrimson": 5319,
      "Ġtrained": 5320,
      "Ġacknowled": 5321,
      "Ġclosest": 5322,
      "gar": 5323,
      "Ġrule": 5324,
      "ona": 5325,
      "rich": 5326,
      "Ġsubordin": 5327,
      "Ġjew": 5328,
      "ded": 5329,
      "Ġportra": 5330,
      "Ġarrive": 5331,
      "Ġspotted": 5332,
      "Ġwest": 5333,
      "Ġshattered": 5334,
      "Ġsport": 5335,
      "Ġdrown": 5336,
      "ators": 5337,
      "Ġsobu": 5338,
      "Ġpersonally": 5339,
      "Ġflust": 5340,
      "Ġaccompl": 5341,
      "Ġcreepy": 5342,
      "Ġadults": 5343,
      "ache": 5344,
      "Ġvide": 5345,
      "Ġriver": 5346,
      "Ġrelated": 5347,
      "sciously": 5348,
      "Ġmits": 5349,
      "Ġdemons": 5350,
      "Ġthirty": 5351,
      "Ġhealing": 5352,
      "Ġchristmas": 5353,
      "mer": 5354,
      "Ġaccount": 5355,
      "Ġcla": 5356,
      "Ġsynch": 5357,
      "Ġmama": 5358,
      "Ġhabit": 5359,
      "eping": 5360,
      "Ġcircle": 5361,
      "Ġphr": 5362,
      "Ġconnected": 5363,
      "Ġsees": 5364,
      "Ġentertain": 5365,
      "Ġgrave": 5366,
      "unched": 5367,
      "Ġprison": 5368,
      "Ġshortly": 5369,
      "Ġcoward": 5370,
      "Ġhatred": 5371,
      "Ġtorn": 5372,
      "Ġinstinctively": 5373,
      "Ġkatsur": 5374,
      "Ġrestaurant": 5375,
      "Ġopenly": 5376,
      "Ġfant": 5377,
      "Ġnons": 5378,
      "idently": 5379,
      "eter": 5380,
      "Ġhighly": 5381,
      "Ġcu": 5382,
      "Ġfond": 5383,
      "ett": 5384,
      "Ġshown": 5385,
      "Ġpray": 5386,
      "jected": 5387,
      "Ġutterly": 5388,
      "Ġlung": 5389,
      "Ġhol": 5390,
      "Ġremains": 5391,
      "Ġchallenge": 5392,
      "Ġdull": 5393,
      "Ġvac": 5394,
      "Ġeverybody": 5395,
      "eke": 5396,
      "Ġbrat": 5397,
      "Ġafford": 5398,
      "Ġfashion": 5399,
      "Ġcharged": 5400,
      "Ġbike": 5401,
      "Ġsignific": 5402,
      "Ġhurting": 5403,
      "Ġsagami": 5404,
      "asper": 5405,
      "Ġdenji": 5406,
      "Ġintimid": 5407,
      "Ġfreedom": 5408,
      "Ġbreasts": 5409,
      "Ġstumbled": 5410,
      "Ġswim": 5411,
      "Ġgreeting": 5412,
      "Ġsurroundings": 5413,
      "Ġargument": 5414,
      "Ġcrush": 5415,
      "Ġexpressions": 5416,
      "Ġjourney": 5417,
      "Ġfamilies": 5418,
      "night": 5419,
      "Ġpillow": 5420,
      "Ġtroubles": 5421,
      "Ġsacrif": 5422,
      "Ġnamp": 5423,
      "ulate": 5424,
      "Ġskirt": 5425,
      "bby": 5426,
      "Ġreun": 5427,
      "Ġatias": 5428,
      "Ġexample": 5429,
      "Ġfalse": 5430,
      "ider": 5431,
      "oops": 5432,
      "ception": 5433,
      "Ġbul": 5434,
      "Ġloyal": 5435,
      "Ġandroids": 5436,
      "Ġfurious": 5437,
      "Ġminds": 5438,
      "Ġbeings": 5439,
      "Ġexposed": 5440,
      "Ġyam": 5441,
      "Ġgathering": 5442,
      "arette": 5443,
      "Ġclouds": 5444,
      "Ġremark": 5445,
      "Ġfrightened": 5446,
      "Ġcigarette": 5447,
      "Ġworries": 5448,
      "Ġrange": 5449,
      "Ġting": 5450,
      "Ġcuriously": 5451,
      "enon": 5452,
      "Ġstands": 5453,
      "Ġflowers": 5454,
      "Ġcollege": 5455,
      "Ġfired": 5456,
      "Ġbrilli": 5457,
      "Ġsolve": 5458,
      "coming": 5459,
      "Ġintr": 5460,
      "Ġwha": 5461,
      "Ġduc": 5462,
      "tly": 5463,
      "ays": 5464,
      "hess": 5465,
      "Ġsqueezed": 5466,
      "Ġculprit": 5467,
      "Ġboun": 5468,
      "Ġdecent": 5469,
      "Ġkiryu": 5470,
      "Ġkamui": 5471,
      "Ġunpleasant": 5472,
      "Ġcred": 5473,
      "Ġcontents": 5474,
      "Ġward": 5475,
      "Ġkatsuragi": 5476,
      "Ġsisters": 5477,
      "Ġsurre": 5478,
      "pers": 5479,
      "Ġcracked": 5480,
      "Ġtreasure": 5481,
      "Ġtyp": 5482,
      "Ġoperation": 5483,
      "Ġremarked": 5484,
      "Ġwrinkled": 5485,
      "Ġrealised": 5486,
      "Ġdecor": 5487,
      "Ġfailure": 5488,
      "Ġmisunderstand": 5489,
      "Ġfuyutsuki": 5490,
      "Ġyawn": 5491,
      "Ġextended": 5492,
      "Ġloving": 5493,
      "Ġexpensive": 5494,
      "Ġplat": 5495,
      "Ġtour": 5496,
      "Ġincl": 5497,
      "Ġpoured": 5498,
      "Ġavailable": 5499,
      "Ġexpand": 5500,
      "Ġapology": 5501,
      "Ġsuspicion": 5502,
      "rom": 5503,
      "Ġbleeding": 5504,
      "Ġduchess": 5505,
      "Ġstress": 5506,
      "Ġshel": 5507,
      "Ġclas": 5508,
      "Ġsed": 5509,
      "lya": 5510,
      "Ġsettle": 5511,
      "Ġprompt": 5512,
      "otic": 5513,
      "hew": 5514,
      "Ġcomputer": 5515,
      "Ġsenketsu": 5516,
      "Ġneigh": 5517,
      "ifically": 5518,
      "Ġnep": 5519,
      "Ġfrowning": 5520,
      "Ġmild": 5521,
      "Ġmerc": 5522,
      "Ġkiryuin": 5523,
      "Ġgods": 5524,
      "oka": 5525,
      "Ġdancing": 5526,
      "Ġmiser": 5527,
      "Ġmim": 5528,
      "hest": 5529,
      "Ġdriving": 5530,
      "ater": 5531,
      "Ġdise": 5532,
      "Ġcurtain": 5533,
      "Ġelegant": 5534,
      "Ġfulfill": 5535,
      "eration": 5536,
      "Ġterrified": 5537,
      "Ġflame": 5538,
      "rict": 5539,
      "Ġmurder": 5540,
      "Ġuniversity": 5541,
      "Ġcode": 5542,
      "Ġgripped": 5543,
      "Ġsoot": 5544,
      "kered": 5545,
      "Ġ!!": 5546,
      "Ġsquare": 5547,
      "Ġjumping": 5548,
      "Ġju": 5549,
      "Ġrealization": 5550,
      "Ġpunishment": 5551,
      "Ġactivity": 5552,
      "Ġdefend": 5553,
      "Ġkikyou": 5554,
      "Ġneighb": 5555,
      "Ġdirected": 5556,
      "Ġaston": 5557,
      "zu": 5558,
      "Ġretri": 5559,
      "Ġerr": 5560,
      "Ġhealth": 5561,
      "Ġvanished": 5562,
      "Ġjin": 5563,
      "Ġripped": 5564,
      "Ġsouth": 5565,
      "youkai": 5566,
      "Ġthorough": 5567,
      "Ġali": 5568,
      "Ġclassmates": 5569,
      "Ġreluctantly": 5570,
      "Ġlots": 5571,
      "Ġstead": 5572,
      "Ġthreatened": 5573,
      "Ġgradually": 5574,
      "Ġconven": 5575,
      "Ġdamned": 5576,
      "Ġupdate": 5577,
      "Ġresc": 5578,
      "wing": 5579,
      "Ġinsane": 5580,
      "Ġcleaning": 5581,
      "och": 5582,
      "Ġroselyn": 5583,
      "Ġprinces": 5584,
      "Ġtrad": 5585,
      "Ġflora": 5586,
      "Ġempires": 5587,
      "Ġresponsibility": 5588,
      "Ġnathaniel": 5589,
      "Ġpup": 5590,
      "inated": 5591,
      "Ġplot": 5592,
      "Ġmomentarily": 5593,
      "Ġsnap": 5594,
      "Ġseparated": 5595,
      "Ġfinds": 5596,
      "mares": 5597,
      "Ġblew": 5598,
      "Ġbothering": 5599,
      "Ġsensit": 5600,
      "Ġclearing": 5601,
      "Ġank": 5602,
      "Ġwishes": 5603,
      "Ġlimbs": 5604,
      "Ġtid": 5605,
      "arts": 5606,
      "Ġspat": 5607,
      "Ġspecifically": 5608,
      "Ġscratched": 5609,
      "ipp": 5610,
      "Ġdietrich": 5611,
      "lied": 5612,
      "ola": 5613,
      "Ġmiata": 5614,
      "Ġflustered": 5615,
      "Ġflick": 5616,
      "Ġassured": 5617,
      "eves": 5618,
      "Ġexer": 5619,
      "arn": 5620,
      "Ġhurts": 5621,
      "Ġhighness": 5622,
      "Ġisley": 5623,
      "ublic": 5624,
      "Ġmultiple": 5625,
      "Ġsmug": 5626,
      "Ġrepres": 5627,
      "Ġeaten": 5628,
      "house": 5629,
      "\"*\"*": 5630,
      "itte": 5631,
      "Ġbarrier": 5632,
      "Ġaddress": 5633,
      "Ġpoison": 5634,
      "Ġtennis": 5635,
      "Ġrifle": 5636,
      "Ġseats": 5637,
      "Ġalco": 5638,
      "Ġslapped": 5639,
      "Ġsolution": 5640,
      "lying": 5641,
      "Ġtai": 5642,
      "Ġoptim": 5643,
      "Ġpondered": 5644,
      "Ġugly": 5645,
      "ulations": 5646,
      "Ġvir": 5647,
      "Ġevidence": 5648,
      "Ġscient": 5649,
      "Ġwarned": 5650,
      "Ġvisited": 5651,
      "Ġelement": 5652,
      "uced": 5653,
      "ara": 5654,
      "Ġprecise": 5655,
      "Ġ?\"\"": 5656,
      "Ġmoonlight": 5657,
      "Ġresearch": 5658,
      "Ġbreeze": 5659,
      "asia": 5660,
      "Ġlaritte": 5661,
      "Ġattempting": 5662,
      "Ġclimbed": 5663,
      "Ġpuzzle": 5664,
      "Ġgym": 5665,
      "Ġoffering": 5666,
      "Ġhalfway": 5667,
      "Ġrepublic": 5668,
      "Ġblankly": 5669,
      "Ġmrs": 5670,
      "Ġblinking": 5671,
      "Ġtossed": 5672,
      "Ġfamous": 5673,
      "Ġshouting": 5674,
      "Ġseiz": 5675,
      "Ġgasp": 5676,
      "Ġfiber": 5677,
      "Ġtore": 5678,
      "Ġnav": 5679,
      "Ġgotta": 5680,
      "Ġsubtle": 5681,
      "Ġ..\"": 5682,
      "Ġalcohol": 5683,
      "hir": 5684,
      "Ġdisgusting": 5685,
      "Ġdrove": 5686,
      "helia": 5687,
      "Ġluckily": 5688,
      "Ġfrustrated": 5689,
      "Ġirritated": 5690,
      "hold": 5691,
      "Ġhin": 5692,
      "Ġisland": 5693,
      "Ġlil": 5694,
      "rous": 5695,
      "Ġconsequ": 5696,
      "Ġpictures": 5697,
      "Ġmature": 5698,
      "Ġrumors": 5699,
      "Ġophelia": 5700,
      "Ġkeeps": 5701,
      "Ġrecent": 5702,
      "Ġstares": 5703,
      "Ġcautiously": 5704,
      "ae": 5705,
      "Ġhood": 5706,
      "Ġkinds": 5707,
      "Ġfavour": 5708,
      "Ġquestioning": 5709,
      "Ġdeserved": 5710,
      "Ġvalue": 5711,
      "Ġjames": 5712,
      "Ġflames": 5713,
      "ott": 5714,
      "Ġaccur": 5715,
      "Ġexperiment": 5716,
      "Ġupwards": 5717,
      "Ġunique": 5718,
      "Ġstrand": 5719,
      "eved": 5720,
      "Ġavo": 5721,
      "Ġwinced": 5722,
      "Ġheels": 5723,
      "Ġmedical": 5724,
      "Ġavoided": 5725,
      "Ġwine": 5726,
      "Ġcrou": 5727,
      "arted": 5728,
      "Ġlets": 5729,
      "osure": 5730,
      "Ġgrunted": 5731,
      "Ġbags": 5732,
      "Ġthunder": 5733,
      "Ġbecomes": 5734,
      "Ġintelligence": 5735,
      "Ġbud": 5736,
      "Ġranking": 5737,
      "Ġincreased": 5738,
      "af": 5739,
      "Ġwings": 5740,
      "founded": 5741,
      "Ġcomprehe": 5742,
      "Ġcompanion": 5743,
      "Ġsliding": 5744,
      "Ġlanding": 5745,
      "Ġdish": 5746,
      "Ġattached": 5747,
      "chal": 5748,
      "Ġspar": 5749,
      "Ġcrossing": 5750,
      "Ġdisgust": 5751,
      "Ġdisappointment": 5752,
      "Ġlun": 5753,
      "Ġspect": 5754,
      "Ġgestured": 5755,
      "Ġlimited": 5756,
      "!\"": 5757,
      "Ġbye": 5758,
      "Ġhealthy": 5759,
      "Ġunfair": 5760,
      "Ġdescribe": 5761,
      "Ġtransfer": 5762,
      "Ġunne": 5763,
      "Ġcalls": 5764,
      "Ġdating": 5765,
      "ids": 5766,
      "Ġnonsense": 5767,
      "Ġappropriate": 5768,
      "eez": 5769,
      "rrrr": 5770,
      "Ġstranger": 5771,
      "Ġcake": 5772,
      "Ġbask": 5773,
      "Ġclubroom": 5774,
      "rig": 5775,
      "Ġtries": 5776,
      "Ġrushing": 5777,
      "Ġtough": 5778,
      "Ġstudied": 5779,
      "Ġdumbfounded": 5780,
      "Ġwiping": 5781,
      "oded": 5782,
      "Ġoccurred": 5783,
      "Ġpolite": 5784,
      "nday": 5785,
      "Ġnonchal": 5786,
      "Ġpool": 5787,
      "Ġversion": 5788,
      "Ġbrave": 5789,
      "no": 5790,
      "Ġdriver": 5791,
      "Ġlouder": 5792,
      "Ġmob": 5793,
      "Ġsincere": 5794,
      "Ġgrinning": 5795,
      "Ġstroked": 5796,
      "Ġexplosion": 5797,
      "Ġnet": 5798,
      "Ġtro": 5799,
      "Ġattr": 5800,
      "Ġclaws": 5801,
      "Ġroughly": 5802,
      "Ġbetrayed": 5803,
      "Ġcomrades": 5804,
      "Ġhotel": 5805,
      "Ġdozen": 5806,
      "Ġstrict": 5807,
      "Ġposture": 5808,
      "Ġconsciousness": 5809,
      "Ġspear": 5810,
      "Ġtie": 5811,
      "Ġwise": 5812,
      "Ġoce": 5813,
      "Ġcoinc": 5814,
      "Ġtrapped": 5815,
      "Ġayase": 5816,
      "Ġoccasionally": 5817,
      "theless": 5818,
      "Ġnevertheless": 5819,
      "Ġvul": 5820,
      "eline": 5821,
      "Ġlifting": 5822,
      "Ġseparate": 5823,
      "met": 5824,
      "arest": 5825,
      "Ġguns": 5826,
      "Ġnerves": 5827,
      "aches": 5828,
      "urd": 5829,
      "Ġfinishing": 5830,
      "Ġcaring": 5831,
      "Ġdrinks": 5832,
      "Ġaristocrats": 5833,
      "Ġactivities": 5834,
      "Ġtug": 5835,
      "aker": 5836,
      "Ġfrequ": 5837,
      "itions": 5838,
      "rey": 5839,
      "ano": 5840,
      "Ġadvent": 5841,
      "Ġhen": 5842,
      "iiii": 5843,
      "Ġflood": 5844,
      "ario": 5845,
      "Ġphot": 5846,
      "Ġphysically": 5847,
      "oses": 5848,
      "Ġky": 5849,
      "Ġsway": 5850,
      "Ġfunction": 5851,
      "Ġny": 5852,
      "gen": 5853,
      "Ġdun": 5854,
      "ethe": 5855,
      "Ġseason": 5856,
      "Ġholl": 5857,
      "Ġreput": 5858,
      "ification": 5859,
      "Ġhuffed": 5860,
      "Ġinch": 5861,
      "Ġtowel": 5862,
      "Ġgreatest": 5863,
      "Ġprogram": 5864,
      "Ġquirrell": 5865,
      "Ġwhoever": 5866,
      "Ġremove": 5867,
      "inity": 5868,
      "Ġobserv": 5869,
      "Ġoddly": 5870,
      "Ġstruggle": 5871,
      "gr": 5872,
      "Ġmanip": 5873,
      "Ġknocking": 5874,
      "ogra": 5875,
      "luded": 5876,
      "Ġstance": 5877,
      "Ġcheerful": 5878,
      "Ġcloak": 5879,
      "Ġdoubted": 5880,
      "Ġabsent": 5881,
      "Ġlimp": 5882,
      "Ġlover": 5883,
      "Ġbiggest": 5884,
      "Ġfourth": 5885,
      "Ġzorome": 5886,
      "Ġtwins": 5887,
      "Ġresent": 5888,
      "Ġgilbert": 5889,
      "Ġarrow": 5890,
      "Ġissues": 5891,
      "Ġteased": 5892,
      "soci": 5893,
      "Ġexce": 5894,
      "Ġcomments": 5895,
      "Ġprovided": 5896,
      "Ġalarm": 5897,
      "Ġcandid": 5898,
      "Ġmoves": 5899,
      "top": 5900,
      "Ġtv": 5901,
      "Ġetern": 5902,
      "vat": 5903,
      "Ġkaz": 5904,
      "Ġchamp": 5905,
      "Ġshows": 5906,
      "Ġreser": 5907,
      "Ġexpectations": 5908,
      "Ġpalms": 5909,
      "Ġaverage": 5910,
      "Ġbackground": 5911,
      "Ġdoorway": 5912,
      "Ġpokemon": 5913,
      "Ġdragging": 5914,
      "Ġmixed": 5915,
      "Ġdespair": 5916,
      "Ġcontrary": 5917,
      "Ġanaly": 5918,
      "Ġinfluence": 5919,
      "Ġcure": 5920,
      "Ġdign": 5921,
      "Ġstruct": 5922,
      "Ġchloe": 5923,
      "Ġmap": 5924,
      "Ġ?''": 5925,
      "Ġliquid": 5926,
      "Ġshifting": 5927,
      "Ġruined": 5928,
      "Ġlungs": 5929,
      "estern": 5930,
      "agers": 5931,
      "Ġexasper": 5932,
      "Ġsme": 5933,
      "Ġloves": 5934,
      "Ġdoubts": 5935,
      "Ġmysterious": 5936,
      "ares": 5937,
      "Ġpacked": 5938,
      "Ġradi": 5939,
      "Ġdelicate": 5940,
      "Ġbiological": 5941,
      "Ġreaders": 5942,
      "Ġgreatly": 5943,
      "Ġflinched": 5944,
      "Ġpsych": 5945,
      "Ġbritan": 5946,
      "Ġbone": 5947,
      "Ġdoc": 5948,
      "Ġunnecess": 5949,
      "Ġrace": 5950,
      "Ġtroops": 5951,
      "Ġintens": 5952,
      "Ġbritann": 5953,
      "Ġcongrat": 5954,
      "Ġsav": 5955,
      "Ġcontract": 5956,
      "Ġswept": 5957,
      "Ġdumbled": 5958,
      "Ġcerem": 5959,
      "Ġnightmares": 5960,
      "Ġceremony": 5961,
      "Ġbeach": 5962,
      "Ġfloated": 5963,
      "Ġawful": 5964,
      "Ġassoci": 5965,
      "Ġkidding": 5966,
      "Ġarch": 5967,
      "Ġdestination": 5968,
      "Ġgranger": 5969,
      "Ġzack": 5970,
      "Ġabsor": 5971,
      "asm": 5972,
      "Ġprim": 5973,
      "Ġlouise": 5974,
      "Ġdumbledore": 5975,
      "Ġlaying": 5976,
      "Ġgritted": 5977,
      "Ġweeke": 5978,
      "Ġbowl": 5979,
      "Ġgrimaced": 5980,
      "ffled": 5981,
      "Ġhinata": 5982,
      "Ġocean": 5983,
      "sis": 5984,
      "Ġale": 5985,
      "Ġpuff": 5986,
      "Ġslap": 5987,
      "Ġnightmare": 5988,
      "Ġguessed": 5989,
      "Ġbegins": 5990,
      "Ġweekend": 5991,
      "itive": 5992,
      "Ġpissed": 5993,
      "Ġwithd": 5994,
      "Ġblaz": 5995,
      "Ġdismiss": 5996,
      "Ġchances": 5997,
      "Ġfifteen": 5998,
      "Ġheartless": 5999,
      "Ġdaily": 6000,
      "Ġske": 6001,
      "Ġlocal": 6002,
      "Ġabandon": 6003,
      "Ġimprove": 6004,
      "Ġenoch": 6005,
      "gend": 6006,
      "itting": 6007,
      "pective": 6008,
      "Ġlands": 6009,
      "Ġsurvived": 6010,
      "Ġvideo": 6011,
      "ashes": 6012,
      "Ġwaves": 6013,
      "Ġtrap": 6014,
      "Ġdetermination": 6015,
      "het": 6016,
      "Ġwhist": 6017,
      "Ġdamaged": 6018,
      "eked": 6019,
      "Ġcheap": 6020,
      "Ġdepth": 6021,
      "Ġcalcul": 6022,
      "ynand": 6023,
      "Ġalley": 6024,
      "Ġhog": 6025,
      "Ġdecim": 6026,
      "Ġmeas": 6027,
      "Ġtransl": 6028,
      "ickered": 6029,
      "Ġchocolate": 6030,
      "Ġvice": 6031,
      "Ġtempor": 6032,
      "Ġrepeat": 6033,
      "Ġitachi": 6034,
      "Ġearned": 6035,
      "Ġviolently": 6036,
      "ille": 6037,
      "Ġkeating": 6038,
      "Ġreceiving": 6039,
      "Ġtriump": 6040,
      "Ġterm": 6041,
      "Ġsquinted": 6042,
      "Ġreflex": 6043,
      "mo": 6044,
      "berry": 6045,
      "Ġlesson": 6046,
      "atory": 6047,
      "Ġborder": 6048,
      "Ġcontinent": 6049,
      "Ġexited": 6050,
      "Ġthrust": 6051,
      "Ġnest": 6052,
      "Ġreputation": 6053,
      "cher": 6054,
      "Ġdoz": 6055,
      "Ġimpressed": 6056,
      "iveness": 6057,
      "Ġbeer": 6058,
      "Ġsevere": 6059,
      "Ġlearning": 6060,
      "Ġcompanions": 6061,
      "Ġcous": 6062,
      "Ġrice": 6063,
      "Ġindif": 6064,
      "Ġprovide": 6065,
      "Ġkon": 6066,
      "Ġtools": 6067,
      "Ġswore": 6068,
      "Ġjudg": 6069,
      "Ġash": 6070,
      "Ġportrait": 6071,
      "Ġgained": 6072,
      "Ġscowled": 6073,
      "gered": 6074,
      "Ġluci": 6075,
      "Ġemerged": 6076,
      "boy": 6077,
      "Ġskull": 6078,
      "omeguri": 6079,
      "Ġrejected": 6080,
      "Ġjewel": 6081,
      "Ġretorted": 6082,
      "Ġbacked": 6083,
      "Ġforming": 6084,
      "Ġarrival": 6085,
      "Ġvig": 6086,
      "Ġblocked": 6087,
      "Ġstraightened": 6088,
      "Ġcritic": 6089,
      "Ġdozens": 6090,
      "Ġimpressive": 6091,
      "Ġsharply": 6092,
      "Ġbasic": 6093,
      "Ġcommitte": 6094,
      "Ġnurse": 6095,
      "Ġsensitive": 6096,
      "Ġcris": 6097,
      "Ġdishes": 6098,
      "Ġrebell": 6099,
      "ulously": 6100,
      "Ġagony": 6101,
      "Ġdram": 6102,
      "Ġasa": 6103,
      "Ġjunk": 6104,
      "Ġlatter": 6105,
      "Ġwynand": 6106,
      "atched": 6107,
      "ulty": 6108,
      "Ġaback": 6109,
      "Ġnewly": 6110,
      "Ġpatient": 6111,
      "Ġbullet": 6112,
      "Ġdisple": 6113,
      "Ġexploded": 6114,
      "Ġshoved": 6115,
      "Ġoblig": 6116,
      "fall": 6117,
      "Ġlect": 6118,
      "Ġbread": 6119,
      "Ġspite": 6120,
      "Ġbird": 6121,
      "Ġwrapping": 6122,
      "Ġvast": 6123,
      "Ġseele": 6124,
      "Ġhummed": 6125,
      "Ġcooper": 6126,
      "Ġproved": 6127,
      "Ġjoking": 6128,
      "Ġsorts": 6129,
      "Ġknelt": 6130,
      "Ġmagn": 6131,
      "Ġshooting": 6132,
      "Ġsele": 6133,
      "Ġelite": 6134,
      "Ġrelationships": 6135,
      "Ġeli": 6136,
      "Ġcentral": 6137,
      "Ġchur": 6138,
      "Ġnational": 6139,
      "Ġattractive": 6140,
      "Ġdeliberately": 6141,
      "erous": 6142,
      "Ġinterv": 6143,
      "Ġxenon": 6144,
      "Ġtells": 6145,
      "Ġestate": 6146,
      "Ġtch": 6147,
      "Ġbelly": 6148,
      "Ġcamera": 6149,
      "Ġfrankly": 6150,
      "rete": 6151,
      "Ġbelonged": 6152,
      "Ġleapt": 6153,
      "Ġabsurd": 6154,
      "Ġstuffed": 6155,
      "Ġmodel": 6156,
      "Ġexisted": 6157,
      "Ġrecom": 6158,
      "Ġalongside": 6159,
      "Ġclutching": 6160,
      "lla": 6161,
      "Ġmeters": 6162,
      "idden": 6163,
      "Ġintentions": 6164,
      "Ġnag": 6165,
      "Ġtrail": 6166,
      "Ġshiromeguri": 6167,
      "Ġassault": 6168,
      "Ġslender": 6169,
      "Ġcream": 6170,
      "Ġhoney": 6171,
      "Ġmotiv": 6172,
      "book": 6173,
      "Ġlegend": 6174,
      "Ġarchi": 6175,
      "Ġdepressed": 6176,
      "Ġproudly": 6177,
      "Ġkicking": 6178,
      "point": 6179,
      "Ġroared": 6180,
      "Ġcravat": 6181,
      "Ġtechnique": 6182,
      "Ġinvis": 6183,
      "Ġfilling": 6184,
      "Ġpills": 6185,
      "Ġinitial": 6186,
      "uce": 6187,
      "Ġawa": 6188,
      "Ġformal": 6189,
      "Ġcommittee": 6190,
      "Ġwandered": 6191,
      "Ġbeam": 6192,
      "antically": 6193,
      "Ġkiller": 6194,
      "Ġsticking": 6195,
      "Ġimmediate": 6196,
      "Ġjudge": 6197,
      "Ġron": 6198,
      "Ġnail": 6199,
      "Ġtank": 6200,
      "Ġtrusted": 6201,
      "Ġpunched": 6202,
      "Ġgrief": 6203,
      "Ġcomfortably": 6204,
      "Ġnonethe": 6205,
      "Ġmistakes": 6206,
      "Ġconfession": 6207,
      "Ġnonetheless": 6208,
      "Ġdestruction": 6209,
      "Ġfingert": 6210,
      "ases": 6211,
      "Ġsignal": 6212,
      "ites": 6213,
      "Ġhurriedly": 6214,
      "mind": 6215,
      "Ġmechan": 6216,
      "Ġconversations": 6217,
      "Ġstabbed": 6218,
      "Ġevas": 6219,
      "phone": 6220,
      "pap": 6221,
      "Ġswing": 6222,
      "Ġ\"...\"": 6223,
      "Ġbonus": 6224,
      "Ġequip": 6225,
      "Ġappreciated": 6226,
      "Ġvent": 6227,
      "Ġinsp": 6228,
      "Ġcountries": 6229,
      "ulting": 6230,
      "Ġmodern": 6231,
      "mn": 6232,
      "Ġabys": 6233,
      "Ġflowing": 6234,
      "Ġreassuring": 6235,
      "Ġlcl": 6236,
      "Ġaristocrat": 6237,
      "Ġsharing": 6238,
      "ainted": 6239,
      "Ġvib": 6240,
      "Ġdu": 6241,
      "Ġdepend": 6242,
      "Ġcomedy": 6243,
      "athy": 6244,
      "Ġconfront": 6245,
      "Ġfreely": 6246,
      "Ġchaos": 6247,
      "Ġfury": 6248,
      "Ġlazy": 6249,
      "Ġstates": 6250,
      "hern": 6251,
      "Ġtroubled": 6252,
      "Ġbewildered": 6253,
      "Ġpm": 6254,
      "Ġhealed": 6255,
      "Ġtsur": 6256,
      "Ġlake": 6257,
      "uga": 6258,
      "Ġvisibly": 6259,
      "Ġschedule": 6260,
      "Ġtaishi": 6261,
      "Ġwaking": 6262,
      "Ġactive": 6263,
      "Ġrequire": 6264,
      "Ġpounding": 6265,
      "Ġsatisfaction": 6266,
      "pet": 6267,
      "umps": 6268,
      "oi": 6269,
      "Ġclimb": 6270,
      "Ġbasket": 6271,
      "Ġwing": 6272,
      "Ġhalt": 6273,
      "Ġprinci": 6274,
      "Ġprotected": 6275,
      "Ġhopes": 6276,
      "Ġpockets": 6277,
      "Ġmisao": 6278,
      "Ġphrase": 6279,
      "Ġofficers": 6280,
      "Ġarranged": 6281,
      "Ġgrat": 6282,
      "Ġrecommend": 6283,
      "Ġjun": 6284,
      "Ġpercent": 6285,
      "Ġprotecting": 6286,
      "sk": 6287,
      "Ġtitans": 6288,
      "osal": 6289,
      "Ġepis": 6290,
      "Ġmc": 6291,
      "esome": 6292,
      "Ġpregn": 6293,
      "Ġcheerfully": 6294,
      "Ġian": 6295,
      "Ġnun": 6296,
      "Ġsecure": 6297,
      "Ġselena": 6298,
      "esy": 6299,
      "Ġreinc": 6300,
      "Ġreincarn": 6301,
      "Ġcloset": 6302,
      "Ġwil": 6303,
      "ums": 6304,
      "Ġpov": 6305,
      "Ġchancell": 6306,
      "Ġmall": 6307,
      "Ġgazing": 6308,
      "Ġsheep": 6309,
      "Ġcontinues": 6310,
      "Ġsleeves": 6311,
      "Ġadmir": 6312,
      "Ġaltern": 6313,
      "Ġcharm": 6314,
      "Ġascard": 6315,
      "aration": 6316,
      "uments": 6317,
      "Ġquality": 6318,
      "Ġenorm": 6319,
      "Ġstrel": 6320,
      "Ġbreaths": 6321,
      "Ġdistinct": 6322,
      "com": 6323,
      "ship": 6324,
      "Ġdeciding": 6325,
      "Ġescort": 6326,
      "Ġacquaint": 6327,
      "Ġequipment": 6328,
      "Ġdared": 6329,
      "Ġdripping": 6330,
      "Ġdecis": 6331,
      "Ġleah": 6332,
      "Ġyamato": 6333,
      "Ġchak": 6334,
      "Ġkeika": 6335,
      "mar": 6336,
      "Ġven": 6337,
      "Ġpatience": 6338,
      "Ġsephir": 6339,
      "icient": 6340,
      "Ġscowl": 6341,
      "Ġcro": 6342,
      "Ġdrank": 6343,
      "Ġsephiroth": 6344,
      "ooked": 6345,
      "Ġchain": 6346,
      "Ġluxurious": 6347,
      "Ġmort": 6348,
      "Ġlink": 6349,
      "Ġhoriz": 6350,
      "Ġboxes": 6351,
      "Ġhanji": 6352,
      "Ġrelatively": 6353,
      "Ġdrifted": 6354,
      "Ġassign": 6355,
      "Ġeduc": 6356,
      "Ġsacrifice": 6357,
      "Ġsorrow": 6358,
      "Ġfranco": 6359,
      "Ġgall": 6360,
      "Ġhaha": 6361,
      "Ġhill": 6362,
      "Ġthri": 6363,
      "Ġrib": 6364,
      "Ġrevol": 6365,
      "Ġnyx": 6366,
      "Ġaloud": 6367,
      "Ġheck": 6368,
      "Ġtender": 6369,
      "Ġworrying": 6370,
      "Ġoptions": 6371,
      "ima": 6372,
      "Ġorbs": 6373,
      "place": 6374,
      "Ġbirds": 6375,
      "Ġtreatment": 6376,
      "Ġcave": 6377,
      "Ġlightning": 6378,
      "hen": 6379,
      "Ġunst": 6380,
      "Ġauthority": 6381,
      "Ġassassin": 6382,
      "Ġmischi": 6383,
      "Ġcreatures": 6384,
      "Ġtables": 6385,
      "Ġsheets": 6386,
      "Ġorb": 6387,
      "Ġmary": 6388,
      "atedly": 6389,
      "Ġendless": 6390,
      "Ġsubst": 6391,
      "Ġbullied": 6392,
      "Ġdiscus": 6393,
      "Ġargue": 6394,
      "Ġalert": 6395,
      "Ġmocking": 6396,
      "hole": 6397,
      "Ġperspective": 6398,
      "Ġbegged": 6399,
      "Ġswiftly": 6400,
      "Ġol": 6401,
      "Ġchill": 6402,
      "Ġdolls": 6403,
      "Ġruin": 6404,
      "Ġreflection": 6405,
      "Ġfer": 6406,
      "Ġpretended": 6407,
      "ville": 6408,
      "Ġcorpse": 6409,
      "Ġpainted": 6410,
      "Ġglimpse": 6411,
      "alie": 6412,
      "Ġbrilliant": 6413,
      "Ġfeared": 6414,
      "Ġikuno": 6415,
      "Ġconcerns": 6416,
      "Ġresidence": 6417,
      "Ġrank": 6418,
      "Ġexception": 6419,
      "Ġmalf": 6420,
      "ushes": 6421,
      "Ġregain": 6422,
      "iba": 6423,
      "Ġhunt": 6424,
      "Ġhesitate": 6425,
      "Ġnaomi": 6426,
      "Ġscenario": 6427,
      "Ġbully": 6428,
      "Ġleather": 6429,
      "Ġconcept": 6430,
      "Ġdeveloped": 6431,
      "Ġiniti": 6432,
      "Ġfingertips": 6433,
      "Ġmerchan": 6434,
      "Ġspreading": 6435,
      "Ġsnarled": 6436,
      "llings": 6437,
      "Ġboots": 6438,
      "Ġappears": 6439,
      "hara": 6440,
      "Ġlatest": 6441,
      "Ġcontrast": 6442,
      "Ġpouted": 6443,
      "omy": 6444,
      "Ġscore": 6445,
      "Ġthoroughly": 6446,
      "rer": 6447,
      "Ġimmense": 6448,
      "Ġamongst": 6449,
      "Ġchakra": 6450,
      "Ġflipped": 6451,
      "Ġbattal": 6452,
      "uated": 6453,
      "Ġamerican": 6454,
      "xed": 6455,
      "Ġbomb": 6456,
      "Ġequal": 6457,
      "Ġarrogant": 6458,
      "Ġcrew": 6459,
      "etta": 6460,
      "Ġzett": 6461,
      "Ġduel": 6462,
      "Ġhous": 6463,
      "Ġremo": 6464,
      "Ġcolored": 6465,
      "Ġvaguely": 6466,
      "Ġzettour": 6467,
      "Ġequally": 6468,
      "suit": 6469,
      "Ġweiss": 6470,
      "Ġbrush": 6471,
      "beat": 6472,
      "Ġsunlight": 6473,
      "Ġreflected": 6474,
      "Ġradio": 6475,
      "Ġhastily": 6476,
      "Ġcustomers": 6477,
      "idents": 6478,
      "ushi": 6479,
      "Ġalliance": 6480,
      "Ġbold": 6481,
      "Ġchancellor": 6482,
      "Ġshillings": 6483,
      "Ġfocusing": 6484,
      "Ġobsess": 6485,
      "Ġmiserable": 6486,
      "Ġcid": 6487,
      "Ġsecrets": 6488,
      "nal": 6489,
      "atives": 6490,
      "Ġnost": 6491,
      "Ġabyss": 6492,
      "Ġtsurumi": 6493,
      "Ġfrantically": 6494,
      "Ġflu": 6495,
      "Ġ****": 6496,
      "Ġriding": 6497,
      "Ġelbow": 6498,
      "Ġfrancois": 6499,
      "Ġyep": 6500,
      "Ġattempts": 6501,
      "Ġmercen": 6502,
      "pha": 6503,
      "Ġchick": 6504,
      "cle": 6505,
      "Ġrear": 6506,
      "Ġrobes": 6507,
      "Ġunb": 6508,
      "Ġinevitable": 6509,
      "Ġmansion": 6510,
      "Ġhumor": 6511,
      "agg": 6512,
      "Ġstandard": 6513,
      "Ġreturns": 6514,
      "ploy": 6515,
      "Ġawesome": 6516,
      "Ġmane": 6517,
      "Ġnatalie": 6518,
      "Ġfortunate": 6519,
      "Ġnegative": 6520,
      "iron": 6521,
      "Ġwalks": 6522,
      "Ġcoldly": 6523,
      "Ġsearched": 6524,
      "Ġjoining": 6525,
      "Ġsync": 6526,
      "Ġmarc": 6527,
      "Ġencounter": 6528,
      "mi": 6529,
      "Ġcreating": 6530,
      "Ġgrandp": 6531,
      "Ġgenuinely": 6532,
      "Ġstamm": 6533,
      "Ġfruit": 6534,
      "rench": 6535,
      "Ġconcrete": 6536,
      "Ġwhispering": 6537,
      "arded": 6538,
      "Ġcart": 6539,
      "Ġcomforting": 6540,
      "Ġofficially": 6541,
      "Ġirritation": 6542,
      "Ġcontained": 6543,
      "Ġinstruct": 6544,
      "Ġstrongest": 6545,
      "Ġresour": 6546,
      "Ġtracks": 6547,
      "Ġguardian": 6548,
      "Ġtsub": 6549,
      "Ġspells": 6550,
      "Ġkiba": 6551,
      "itated": 6552,
      "Ġspinning": 6553,
      "fl": 6554,
      "Ġbay": 6555,
      "Ġchief": 6556,
      "Ġcoughed": 6557,
      "Ġgrasped": 6558,
      "Ġroute": 6559,
      "Ġconsideration": 6560,
      "Ġthud": 6561,
      "Ġsank": 6562,
      "akura": 6563,
      "Ġflowed": 6564,
      "Ġder": 6565,
      "Ġnephew": 6566,
      "da": 6567,
      "Ġimagination": 6568,
      "Ġalike": 6569,
      "Ġinteract": 6570,
      "Ġfigures": 6571,
      "Ġwestern": 6572,
      "Ġluc": 6573,
      "Ġenviron": 6574,
      "Ġeast": 6575,
      "Ġensure": 6576,
      "Ġlogical": 6577,
      "Ġscratch": 6578,
      "Ġaimed": 6579,
      "Ġdessert": 6580,
      "ooo": 6581,
      "Ġtypical": 6582,
      "Ġbrushing": 6583,
      "Ġinstru": 6584,
      "Ġhearts": 6585,
      "Ġweakly": 6586,
      "Ġaudrey": 6587,
      "Ġrig": 6588,
      "Ġsciss": 6589,
      "uriously": 6590,
      "Ġdisclaim": 6591,
      "Ġchamber": 6592,
      "Ġcran": 6593,
      "Ġkenshin": 6594,
      "Ġinquired": 6595,
      "Ġbaka": 6596,
      "Ġpolitely": 6597,
      "Ġclutched": 6598,
      "Ġcovers": 6599,
      "Ġcopy": 6600,
      "Ġenormous": 6601,
      "Ġtoy": 6602,
      "Ġrecru": 6603,
      "Ġkayden": 6604,
      "Ġgates": 6605,
      "ads": 6606,
      "Ġhearted": 6607,
      "Ġwheel": 6608,
      "ishly": 6609,
      "Ġgif": 6610,
      "Ġreacted": 6611,
      "Ġsensed": 6612,
      "Ġrecovered": 6613,
      "Ġslide": 6614,
      "cient": 6615,
      "Ġminor": 6616,
      "Ġgrounds": 6617,
      "Ġbeloved": 6618,
      "Ġcompens": 6619,
      "Ġnap": 6620,
      "Ġnearest": 6621,
      "Ġmused": 6622,
      "Ġusui": 6623,
      "Ġingredient": 6624,
      "::::::::": 6625,
      "Ġproduct": 6626,
      "Ġneatly": 6627,
      "wa": 6628,
      "Ġsamson": 6629,
      "Ġvibr": 6630,
      "Ġburden": 6631,
      "Ġshorter": 6632,
      "Ġinvisible": 6633,
      "iving": 6634,
      "Ġshuff": 6635,
      "Ġempha": 6636,
      "Ġfragile": 6637,
      "asingly": 6638,
      "Ġinjuries": 6639,
      "Ġanybody": 6640,
      "Ġseek": 6641,
      "Ġbeaten": 6642,
      "Ġteachers": 6643,
      "icy": 6644,
      "Ġdiscomfort": 6645,
      "Ġadorable": 6646,
      "Ġdisease": 6647,
      "Ġclick": 6648,
      "Ġcares": 6649,
      "Ġmuscle": 6650,
      "Ġhuff": 6651,
      "Ġpreferred": 6652,
      "Ġscram": 6653,
      "ja": 6654,
      "Ġtang": 6655,
      "Ġari": 6656,
      "Ġoccupied": 6657,
      "hey": 6658,
      "acious": 6659,
      "Ġdug": 6660,
      "Ġunre": 6661,
      "Ġtrigg": 6662,
      "Ġintroduced": 6663,
      "Ġvulner": 6664,
      "aries": 6665,
      "Ġfled": 6666,
      "ture": 6667,
      "Ġinches": 6668,
      "iments": 6669,
      "hhh": 6670,
      "Ġgiggle": 6671,
      "Ġunnecessary": 6672,
      "Ġintently": 6673,
      "Ġtwisting": 6674,
      "Ġtearing": 6675,
      "Ġgroups": 6676,
      "Ġroutine": 6677,
      "Ġplatform": 6678,
      "ex": 6679,
      "yuki": 6680,
      "Ġforb": 6681,
      "Ġcru": 6682,
      "Ġnovels": 6683,
      "arant": 6684,
      "Ġhardened": 6685,
      "Ġrecovery": 6686,
      "Ġgau": 6687,
      "Ġmajority": 6688,
      "ester": 6689,
      "Ġnights": 6690,
      "Ġinterrupt": 6691,
      "Ġyuma": 6692,
      "Ġdegree": 6693,
      "Ġincluded": 6694,
      "Ġcareer": 6695,
      "Ġexplaining": 6696,
      "Ġsymb": 6697,
      "Ġhighest": 6698,
      "Ġchurch": 6699,
      "Ġgross": 6700,
      "Ġsuic": 6701,
      "Ġbrand": 6702,
      "Ġdevelopment": 6703,
      "agement": 6704,
      "Ġmercy": 6705,
      "Ġcage": 6706,
      "ifully": 6707,
      "Ġincredible": 6708,
      "bur": 6709,
      "hand": 6710,
      "Ġga": 6711,
      "Ġrarely": 6712,
      "Ġpurcha": 6713,
      "Ġprofessional": 6714,
      "Ġattendant": 6715,
      "Ġax": 6716,
      "Ġnewspap": 6717,
      "Ġmelina": 6718,
      "veled": 6719,
      "istent": 6720,
      "Ġprotection": 6721,
      "Ġoffended": 6722,
      "Ġobserving": 6723,
      "Ġexcell": 6724,
      "Ġsory": 6725,
      "Ġmessages": 6726,
      "Ġpages": 6727,
      "Ġbrut": 6728,
      "kin": 6729,
      "Ġlol": 6730,
      "Ġadjusted": 6731,
      "Ġslipping": 6732,
      "Ġadop": 6733,
      "Ġstol": 6734,
      "Ġproc": 6735,
      "case": 6736,
      "Ġaerial": 6737,
      "Ġpros": 6738,
      "enses": 6739,
      "Ġfrightening": 6740,
      "Ġpiercing": 6741,
      "Ġscolded": 6742,
      "cel": 6743,
      "Ġstrained": 6744,
      "rences": 6745,
      "Ġdefensive": 6746,
      "Ġtransp": 6747,
      "Ġsoryu": 6748,
      "Ġhamm": 6749,
      "Ġagon": 6750,
      "Ġchoked": 6751,
      "warts": 6752,
      "Ġgentleman": 6753,
      "ours": 6754,
      "umping": 6755,
      "Ġaiming": 6756,
      "Ġscattered": 6757,
      "Ġdifferently": 6758,
      "Ġmiku": 6759,
      "Ġviolent": 6760,
      "Ġyan": 6761,
      "Ġcomposure": 6762,
      "Ġminim": 6763,
      "Ġurg": 6764,
      "Ġdietf": 6765,
      "Ġdiscussion": 6766,
      "Ġkasia": 6767,
      "Ġbrings": 6768,
      "Ġleaders": 6769,
      "Ġtechnically": 6770,
      "Ġhostile": 6771,
      "Ġsurvey": 6772,
      "Ġfancy": 6773,
      "Ġresolve": 6774,
      "uable": 6775,
      "Ġguarant": 6776,
      "Ġeffective": 6777,
      "Ġaccompanied": 6778,
      "ugi": 6779,
      "getic": 6780,
      "Ġclasped": 6781,
      "Ġenvironment": 6782,
      "Ġrust": 6783,
      "ivered": 6784,
      "Ġatop": 6785,
      "Ġoverwhelming": 6786,
      "ties": 6787,
      "Ġreck": 6788,
      "raw": 6789,
      "Ġconfessed": 6790,
      "Ġsuccessful": 6791,
      "Ġpreviously": 6792,
      "Ġeffects": 6793,
      "Ġsnacks": 6794,
      "Ġrequested": 6795,
      "Ġunfortunate": 6796,
      "Ġexcuses": 6797,
      "Ġstair": 6798,
      "Ġkin": 6799,
      "ussy": 6800,
      "Ġhogwarts": 6801,
      "Ġtruck": 6802,
      "Ġpraise": 6803,
      "Ġadventure": 6804,
      "ean": 6805,
      "Ġslain": 6806,
      "Ġassigned": 6807,
      "Ġreflect": 6808,
      "Ġ.,": 6809,
      "Ġshade": 6810,
      "Ġbiting": 6811,
      "Ġcompar": 6812,
      "Ġstole": 6813,
      "Ġpouring": 6814,
      "andra": 6815,
      "Ġmaria": 6816,
      "Ġbitterly": 6817,
      "Ġcredit": 6818,
      "Ġexcitedly": 6819,
      "Ġgoddess": 6820,
      "Ġenthusi": 6821,
      "Ġrepresent": 6822,
      "Ġstolen": 6823,
      "Ġprofile": 6824,
      "Ġdistrict": 6825,
      "Ġlingering": 6826,
      "Ġsymbol": 6827,
      "Ġbuck": 6828,
      "Ġowe": 6829,
      "Ġveget": 6830,
      "Ġcomforted": 6831,
      "itani": 6832,
      "Ġmistaken": 6833,
      "Ġerina": 6834,
      "Ġuneasy": 6835,
      "Ġupright": 6836,
      "Ġclam": 6837,
      "Ġhugging": 6838,
      "Ġdagger": 6839,
      "py": 6840,
      "zo": 6841,
      "outs": 6842,
      "ryu": 6843,
      "Ġpainfully": 6844,
      "Ġinterior": 6845,
      "Ġideal": 6846,
      "Ġcrime": 6847,
      "Ġrever": 6848,
      "Ġguide": 6849,
      "Ġadvanced": 6850,
      "Ġbranch": 6851,
      "Ġknuck": 6852,
      "mented": 6853,
      "Ġhikitani": 6854,
      "Ġrabona": 6855,
      "iday": 6856,
      "Ġbuying": 6857,
      "Ġpredict": 6858,
      "Ġgang": 6859,
      "Ġdownt": 6860,
      "wear": 6861,
      "Ġpatiently": 6862,
      "Ġcolors": 6863,
      "Ġwashing": 6864,
      "Ġcrashed": 6865,
      "Ġromance": 6866,
      "Ġlilith": 6867,
      "Ġtwel": 6868,
      "Ġshaped": 6869,
      "Ġmarks": 6870,
      "Ġargent": 6871,
      "Ġexhaled": 6872,
      "Ġdismissed": 6873,
      "Ġstreliz": 6874,
      "inte": 6875,
      "Ġarrang": 6876,
      "Ġ=": 6877,
      "Ġaudience": 6878,
      "Ġtucked": 6879,
      "Ġnope": 6880,
      "izz": 6881,
      "Ġswir": 6882,
      "Ġhesitantly": 6883,
      "Ġlocated": 6884,
      "Ġstall": 6885,
      "Ġsnake": 6886,
      "Ġbattalion": 6887,
      "Ġdammit": 6888,
      "que": 6889,
      "Ġwounded": 6890,
      "Ġrecalling": 6891,
      "Ġpromptly": 6892,
      "Ġmac": 6893,
      "Ġfuriously": 6894,
      "Ġstrategy": 6895,
      "yama": 6896,
      "Ġinvite": 6897,
      "Ġcriminal": 6898,
      "Ġpublished": 6899,
      "Ġinternal": 6900,
      "vis": 6901,
      "Ġlined": 6902,
      "Ġanytime": 6903,
      "Ġmountains": 6904,
      "do": 6905,
      "Ġmeg": 6906,
      "unte": 6907,
      "Ġ...'": 6908,
      "Ġlem": 6909,
      "Ġessent": 6910,
      "inating": 6911,
      "Ġdang": 6912,
      "Ġattacking": 6913,
      "Ġyuzu": 6914,
      "pr": 6915,
      "Ġcrushed": 6916,
      "Ġplanet": 6917,
      "Ġvolunte": 6918,
      "Ġdepartment": 6919,
      "Ġchloey": 6920,
      "izes": 6921,
      "Ġsupplies": 6922,
      "Ġswitch": 6923,
      "Ġtapping": 6924,
      "Ġpresented": 6925,
      "Ġstrelizia": 6926,
      "Ġtoler": 6927,
      "Ġraven": 6928,
      "Ġankle": 6929,
      "enced": 6930,
      "Ġsore": 6931,
      "Ġflirt": 6932,
      "Ġpointless": 6933,
      "Ġnumerous": 6934,
      "Ġawe": 6935,
      "Ġescap": 6936,
      "Ġupdated": 6937,
      "Ġsmoothly": 6938,
      "hard": 6939,
      "Ġconsequences": 6940,
      "Ġ\"-": 6941,
      "ica": 6942,
      "Ġperformance": 6943,
      "Ġrendinium": 6944,
      "rained": 6945,
      "Ġwield": 6946,
      "Ġfare": 6947,
      "Ġparted": 6948,
      "Ġkindness": 6949,
      "Ġedward": 6950,
      "Ġreports": 6951,
      "Ġcombined": 6952,
      "Ġmei": 6953,
      "Ġashamed": 6954,
      "agged": 6955,
      "Ġphoto": 6956,
      "Ġshone": 6957,
      "Ġmeantime": 6958,
      "Ġwitnessed": 6959,
      "fied": 6960,
      "Ġeyel": 6961,
      "Ġahh": 6962,
      "Ġadding": 6963,
      "cast": 6964,
      "ees": 6965,
      "Ġcookies": 6966,
      "Ġjaken": 6967,
      "Ġconfirmation": 6968,
      "Ġpist": 6969,
      "Ġrival": 6970,
      "Ġkindly": 6971,
      "fits": 6972,
      "Ġkan": 6973,
      "Ġwhir": 6974,
      "Ġscreams": 6975,
      "abor": 6976,
      "Ġtoohey": 6977,
      "shit": 6978,
      "Ġdisclaimer": 6979,
      "Ġdum": 6980,
      "Ġenvelop": 6981,
      "Ġslumped": 6982,
      "Ġopens": 6983,
      "Ġuniverse": 6984,
      "hou": 6985,
      "Ġnah": 6986,
      "Ġramen": 6987,
      "Ġmalfoy": 6988,
      "Ġdemean": 6989,
      "Ġvicious": 6990,
      "oria": 6991,
      "Ġphan": 6992,
      "Ġrow": 6993,
      "mble": 6994,
      "Ġhah": 6995,
      "alth": 6996,
      "amiliar": 6997,
      "Ġeleven": 6998,
      "Ġhmmm": 6999,
      "Ġclever": 7000,
      "Ġunfamiliar": 7001,
      "Ġhundreds": 7002,
      "Ġultimately": 7003,
      "Ġdiscover": 7004,
      "Ġspeechless": 7005,
      "ibilities": 7006,
      "Ġexhaust": 7007,
      "Ġdies": 7008,
      "Ġsheila": 7009,
      "Ġillum": 7010,
      "Ġinse": 7011,
      "Ġancient": 7012,
      "Ġmattered": 7013,
      "vision": 7014,
      "Ġhehe": 7015,
      "Ġmitsuru": 7016,
      "Ġdesigned": 7017,
      "urance": 7018,
      "Ġstops": 7019,
      "Ġdistract": 7020,
      "Ġamazed": 7021,
      "aph": 7022,
      "Ġmarket": 7023,
      "Ġfleet": 7024,
      "Ġaccepting": 7025,
      "Ġreinfor": 7026,
      "Ġartic": 7027,
      "Ġsatur": 7028,
      "Ġtap": 7029,
      "Ġnoct": 7030,
      "pending": 7031,
      "Ġquit": 7032,
      "Ġcaptured": 7033,
      "Ġobliv": 7034,
      "Ġoverwhelmed": 7035,
      "Ġlee": 7036,
      "Ġroar": 7037,
      "Ġassuming": 7038,
      "Ġarcher": 7039,
      "Ġmock": 7040,
      "aneously": 7041,
      "Ġdigging": 7042,
      "Ġexcellent": 7043,
      "hal": 7044,
      "Ġstraw": 7045,
      "Ġlevels": 7046,
      "Ġacknowledge": 7047,
      "Ġautomatically": 7048,
      "alia": 7049,
      "Ġfederation": 7050,
      "Ġsla": 7051,
      "Ġdisci": 7052,
      "Ġilleg": 7053,
      "Ġtidus": 7054,
      "Ġbug": 7055,
      "Ġbattles": 7056,
      "Ġoverl": 7057,
      "oku": 7058,
      "Ġclaimed": 7059,
      "anne": 7060,
      "aud": 7061,
      "Ġ):": 7062,
      "Ġmagaz": 7063,
      "Ġsoup": 7064,
      "Ġpitiful": 7065,
      "Ġrely": 7066,
      "Ġhumili": 7067,
      "Ġbullshit": 7068,
      "oning": 7069,
      "Ġflicked": 7070,
      "Ġconcluded": 7071,
      "Ġwipe": 7072,
      "Ġrubel": 7073,
      "Ġeup": 7074,
      "Ġtremend": 7075,
      "Ġarmed": 7076,
      "Ġringing": 7077,
      "Ġscree": 7078,
      "Ġdisag": 7079,
      "Ġunlikely": 7080,
      "Ġtradition": 7081,
      "Ġhahaha": 7082,
      "Ġjerem": 7083,
      "Ġplastic": 7084,
      "Ġgratitude": 7085,
      "cion": 7086,
      "Ġhelpful": 7087,
      "Ġpeter": 7088,
      "Ġreb": 7089,
      "Ġcountless": 7090,
      "Ġcomprehend": 7091,
      "Ġrox": 7092,
      "Ġimages": 7093,
      "Ġwasted": 7094,
      "Ġsteam": 7095,
      "Ġupstairs": 7096,
      "usions": 7097,
      "Ġvehic": 7098,
      "Ġterribly": 7099,
      "Ġwrap": 7100,
      "Ġtheory": 7101,
      "Ġclue": 7102,
      "Ġworthy": 7103,
      "nou": 7104,
      "Ġconfl": 7105,
      "Ġgender": 7106,
      "Ġstealing": 7107,
      "Ġec": 7108,
      "Ġtracking": 7109,
      "assion": 7110,
      "getsu": 7111,
      "Ġgazes": 7112,
      "Ġsucceeded": 7113,
      "Ġwagon": 7114,
      "oro": 7115,
      "nn": 7116,
      "Ġhowl": 7117,
      "Ġearnest": 7118,
      "Ġraw": 7119,
      "Ġshuddered": 7120,
      "Ġoverly": 7121,
      "Ġthankful": 7122,
      "Ġgenes": 7123,
      "Ġterrifying": 7124,
      "Ġfailing": 7125,
      "Ġfasc": 7126,
      "pelled": 7127,
      "Ġtalent": 7128,
      "Ġtorso": 7129,
      "Ġstructure": 7130,
      "Ġdried": 7131,
      "Ġyel": 7132,
      "Ġindex": 7133,
      "Ġaverted": 7134,
      "power": 7135,
      "Ġbol": 7136,
      "Ġpotion": 7137,
      "Ġrelative": 7138,
      "Ġsolemn": 7139,
      "Ġecon": 7140,
      "Ġabsence": 7141,
      "Ġhyuga": 7142,
      "Ġdeliver": 7143,
      "Ġkai": 7144,
      "uman": 7145,
      "Ġchoosing": 7146,
      "Ġfifty": 7147,
      "Ġuttered": 7148,
      "Ġsid": 7149,
      "Ġvoid": 7150,
      "Ġnerve": 7151,
      "hr": 7152,
      "Ġfol": 7153,
      "Ġsighs": 7154,
      "Ġmarcus": 7155,
      "unting": 7156,
      "ements": 7157,
      "Ġheartb": 7158,
      "Ġdeadly": 7159,
      "Ġhates": 7160,
      "Ġrebellion": 7161,
      "Ġnort": 7162,
      "Ġanticipation": 7163,
      "Ġyen": 7164,
      "quar": 7165,
      "Ġdevice": 7166,
      "Ġcomplained": 7167,
      "Ġstretch": 7168,
      "tles": 7169,
      "Ġnana": 7170,
      "Ġmank": 7171,
      "Ġcontrib": 7172,
      "Ġswinging": 7173,
      "Ġfacts": 7174,
      "Ġexcl": 7175,
      "Ġcircles": 7176,
      "Ġaccidentally": 7177,
      "phan": 7178,
      "erate": 7179,
      "imate": 7180,
      "Ġholds": 7181,
      "Ġplane": 7182,
      "Ġkira": 7183,
      "Ġdowntown": 7184,
      "Ġalien": 7185,
      "uled": 7186,
      "Ġheadache": 7187,
      "Ġpierced": 7188,
      "Ġsmelled": 7189,
      "stick": 7190,
      "aware": 7191,
      "Ġvaluable": 7192,
      "Ġgear": 7193,
      "Ġgoddam": 7194,
      "Ġsubordinates": 7195,
      "Ġmercenary": 7196,
      "Ġcars": 7197,
      "Ġsuck": 7198,
      "Ġdisappro": 7199,
      "Ġsystems": 7200,
      "Ġlaptop": 7201,
      "Ġnonchalantly": 7202,
      "Ġanna": 7203,
      "Ġblo": 7204,
      "Ġspirits": 7205,
      "Ġtugged": 7206,
      "ope": 7207,
      "Ġchase": 7208,
      "Ġgripping": 7209,
      "Ġultimate": 7210,
      "Ġobsc": 7211,
      "Ġtighter": 7212,
      "fire": 7213,
      "Ġbun": 7214,
      "Ġshinra": 7215,
      "Ġstammered": 7216,
      "Ġkalcion": 7217,
      "tail": 7218,
      "Ġelectric": 7219,
      "Ġsheet": 7220,
      "mph": 7221,
      "Ġresembled": 7222,
      "Ġslowed": 7223,
      "Ġcrashing": 7224,
      "Ġhorns": 7225,
      "Ġlion": 7226,
      "Ġheadquar": 7227,
      "Ġsummary": 7228,
      "Ġupdates": 7229,
      "Ġtrigger": 7230,
      "Ġtwelve": 7231,
      "Ġpad": 7232,
      "Ġinstr": 7233,
      "Ġfaintly": 7234,
      "Ġdescended": 7235,
      "Ġminister": 7236,
      "Ġregen": 7237,
      "Ġfreak": 7238,
      "Ġdil": 7239,
      "Ġrhy": 7240,
      "Ġjerked": 7241,
      "Ġsons": 7242,
      "Ġfears": 7243,
      "Ġmanners": 7244,
      "Ġnanny": 7245,
      "Ġafar": 7246,
      "inqu": 7247,
      "Ġvolume": 7248,
      "Ġnut": 7249,
      "Ġcorpor": 7250,
      "Ġhanna": 7251,
      "Ġexagger": 7252,
      "Ġlam": 7253,
      "Ġthousands": 7254,
      "ested": 7255,
      "ferent": 7256,
      "Ġdestiny": 7257,
      "Ġstretching": 7258,
      "Ġhypot": 7259,
      "Ġdietfried": 7260,
      "Ġnak": 7261,
      "Ġtraces": 7262,
      "Ġanimals": 7263,
      "Ġshyly": 7264,
      "Ġhollow": 7265,
      "Ġcit": 7266,
      "Ġtrade": 7267,
      "Ġfox": 7268,
      "Ġhousehold": 7269,
      "Ġheadquarters": 7270,
      "Ġwhispers": 7271,
      "Ġdressing": 7272,
      "Ġhunger": 7273,
      "Ġanti": 7274,
      "umn": 7275,
      "bey": 7276,
      "acity": 7277,
      "Ġscars": 7278,
      "Ġfalls": 7279,
      "Ġdorm": 7280,
      "alled": 7281,
      "Ġspy": 7282,
      "Ġcountered": 7283,
      "Ġballs": 7284,
      "Ġsuggestion": 7285,
      "uations": 7286,
      "Ġcrash": 7287,
      "Ġsurvival": 7288,
      "Ġgermania": 7289,
      "enia": 7290,
      "Ġconso": 7291,
      "Ġagent": 7292,
      "Ġcoincidence": 7293,
      "vable": 7294,
      "Ġwandering": 7295,
      "olo": 7296,
      "Ġbelief": 7297,
      "Ġchairs": 7298,
      "Ġgorge": 7299,
      "Ġmischiev": 7300,
      "Ġsite": 7301,
      "Ġedges": 7302,
      "Ġoperations": 7303,
      "Ġoutr": 7304,
      "Ġretort": 7305,
      "Ġreported": 7306,
      "uttering": 7307,
      "Ġarmored": 7308,
      "Ġmiles": 7309,
      "Ġintroduce": 7310,
      "Ġharu": 7311,
      "Ġpervert": 7312,
      "Ġflee": 7313,
      "Ġstained": 7314,
      "Ġplayer": 7315,
      "Ġfields": 7316,
      "Ġinstincts": 7317,
      "Ġelementary": 7318,
      "Ġtests": 7319,
      "Ġannounce": 7320,
      "Ġpredic": 7321,
      "Ġreference": 7322,
      "Ġsweating": 7323,
      "Ġdifficulty": 7324,
      "Ġtaiyoukai": 7325,
      "Ġxx": 7326,
      "key": 7327,
      "Ġhonnou": 7328,
      "Ġpregnant": 7329,
      "Ġsympat": 7330,
      "Ġelya": 7331,
      "Ġshiver": 7332,
      "Ġinvitation": 7333,
      "Ġjunketsu": 7334,
      "Ġdirections": 7335,
      "Ġstiffened": 7336,
      "Ġthread": 7337,
      "Ġeveryday": 7338,
      "Ġmugetsu": 7339,
      "Ġmemor": 7340,
      "Ġslamming": 7341,
      "Ġclaymores": 7342,
      "Ġprotested": 7343,
      "Ġreduced": 7344,
      "Ġsealed": 7345,
      "Ġperman": 7346,
      "Ġ*)": 7347,
      "Ġdisturbing": 7348,
      "Ġome": 7349,
      "Ġdeploy": 7350,
      "Ġwary": 7351,
      "Ġfifth": 7352,
      "Ġmm": 7353,
      "Ġvulnerable": 7354,
      "Ġfidd": 7355,
      "Ġracing": 7356,
      "Ġaddressed": 7357,
      "Ġsoothing": 7358,
      "Ġconflict": 7359,
      "uge": 7360,
      "Ġbullets": 7361,
      "Ġremoving": 7362,
      "Ġroxanne": 7363,
      "Ġlessons": 7364,
      "bted": 7365,
      "xim": 7366,
      "Ġinfect": 7367,
      "Ġgrind": 7368,
      "Ġimpatiently": 7369,
      "Ġspiritual": 7370,
      "Ġgamag": 7371,
      "Ġignor": 7372,
      "Ġprotective": 7373,
      "Ġepisode": 7374,
      "gon": 7375,
      "Ġovercome": 7376,
      "Ġcries": 7377,
      "Ġrespective": 7378,
      "master": 7379,
      "Ġalex": 7380,
      "Ġbust": 7381,
      "Ġtorture": 7382,
      "Ġzone": 7383,
      "--": 7384,
      "icia": 7385,
      "Ġadjust": 7386,
      "Ġdodge": 7387,
      "Ġiv": 7388,
      "Ġrip": 7389,
      "Ġcharl": 7390,
      "Ġtransport": 7391,
      "Ġunexpectedly": 7392,
      "Ġpleas": 7393,
      "Ġindifferent": 7394,
      "Ġoo": 7395,
      "Ġunbe": 7396,
      "Ġpained": 7397,
      "Ġgoss": 7398,
      "Ġspeaks": 7399,
      "Ġillness": 7400,
      "Ġurged": 7401,
      "Ġlaunched": 7402,
      "Ġgiggling": 7403,
      "nat": 7404,
      "Ġtu": 7405,
      "Ġhip": 7406,
      "Ġrud": 7407,
      "Ġpriestess": 7408,
      "ipe": 7409,
      "Ġheel": 7410,
      "Ġqual": 7411,
      "Ġmuffled": 7412,
      "Ġimplic": 7413,
      "bits": 7414,
      "ucing": 7415,
      "uya": 7416,
      "Ġmeals": 7417,
      "Ġsmirking": 7418,
      "Ġbenefit": 7419,
      "Ġclique": 7420,
      "ables": 7421,
      "Ġunha": 7422,
      "Ġtesting": 7423,
      "Ġsynchron": 7424,
      "Ġken": 7425,
      "Ġevident": 7426,
      "udge": 7427,
      "Ġcomposed": 7428,
      "Ġplayboy": 7429,
      "rina": 7430,
      "Ġwhipped": 7431,
      "Ġhopeless": 7432,
      "Ġlemrina": 7433,
      "Ġscratching": 7434,
      "Ġkeen": 7435,
      "Ġmelted": 7436,
      "Ġpig": 7437,
      "Ġsnapping": 7438,
      "Ġarguing": 7439,
      "Ġobserve": 7440,
      "Ġscience": 7441,
      "Ġrefres": 7442,
      "Ġeagerly": 7443,
      "Ġerup": 7444,
      "Ġcleaned": 7445,
      "Ġsports": 7446,
      "itch": 7447,
      "Ġ#": 7448,
      "Ġvinc": 7449,
      "Ġpanting": 7450,
      "Ġresentment": 7451,
      "Ġunfold": 7452,
      "Ġslaine": 7453,
      "va": 7454,
      "ada": 7455,
      "Ġguided": 7456,
      "Ġcharging": 7457,
      "ardon": 7458,
      "Ġsimult": 7459,
      "Ġrescue": 7460,
      "Ġexercise": 7461,
      "Ġspit": 7462,
      "Ġgenius": 7463,
      "uming": 7464,
      "Ġstriking": 7465,
      "Ġcher": 7466,
      "Ġshell": 7467,
      "Ġshocking": 7468,
      "Ġrequests": 7469,
      "Ġlaunch": 7470,
      "Ġhelplessly": 7471,
      "Ġhorizon": 7472,
      "Ġuses": 7473,
      "Ġshivered": 7474,
      "Ġgeof": 7475,
      "Ġsaturday": 7476,
      "Ġcliff": 7477,
      "Ġva": 7478,
      "Ġsmashed": 7479,
      "Ġblocking": 7480,
      "Ġtourn": 7481,
      "Ġ-)": 7482,
      "Ġdriven": 7483,
      "Ġproposal": 7484,
      "utter": 7485,
      "Ġ...?\"": 7486,
      "Ġsought": 7487,
      "Ġdisplayed": 7488,
      "ounted": 7489,
      "Ġviolence": 7490,
      "Ġcomrade": 7491,
      "Ġjar": 7492,
      "Ġsqueeze": 7493,
      "Ġobservation": 7494,
      "Ġgeofront": 7495,
      "Ġaik": 7496,
      "Ġbutter": 7497,
      "Ġclenching": 7498,
      "Ġcongratulations": 7499,
      "Ġvincent": 7500,
      "erser": 7501,
      "Ġcorrectly": 7502,
      "etr": 7503,
      "Ġnoctis": 7504,
      "Ġmisfort": 7505,
      "Ġapproval": 7506,
      "Ġparties": 7507,
      "Ġsession": 7508,
      "Ġbluntly": 7509,
      "oba": 7510,
      "Ġberser": 7511,
      "Ġtease": 7512,
      "Ġtaichi": 7513,
      "Ġwatari": 7514,
      "Ġstock": 7515,
      "Ġapologies": 7516,
      "Ġactivated": 7517,
      "Ġcyn": 7518,
      "herent": 7519,
      "Ġneville": 7520,
      "Ġsubjects": 7521,
      "Ġresources": 7522,
      "Ġskip": 7523,
      "Ġirre": 7524,
      "Ġproduced": 7525,
      "Ġclaire": 7526,
      "Ġknuckles": 7527,
      "Ġallies": 7528,
      "Ġdeck": 7529,
      "Ġshaky": 7530,
      "Ġheartbeat": 7531,
      "Ġalt": 7532,
      "Ġquests": 7533,
      "Ġlaughs": 7534,
      "Ġreluctant": 7535,
      "Ġthighs": 7536,
      "Ġfet": 7537,
      "Ġblat": 7538,
      "Ġspider": 7539,
      "Ġimpul": 7540,
      "ikes": 7541,
      "Ġexped": 7542,
      "Ġtremendous": 7543,
      "Ġobjective": 7544,
      "Ġfitting": 7545,
      "Ġtelevision": 7546,
      "Ġreferring": 7547,
      "Ġtray": 7548,
      "Ġscare": 7549,
      "Ġveins": 7550,
      "Ġreasonable": 7551,
      "Ġhomework": 7552,
      "Ġhesitant": 7553,
      "Ġsarcastically": 7554,
      "Ġmidst": 7555,
      "Ġslyther": 7556,
      "Ġpor": 7557,
      "Ġwasting": 7558,
      "Ġoffensive": 7559,
      "Ġsurrender": 7560,
      "oul": 7561,
      "Ġfid": 7562,
      "Ġshed": 7563,
      "Ġinitially": 7564,
      "Ġlust": 7565,
      "Ġpoked": 7566,
      "Ġbegging": 7567,
      "ints": 7568,
      "Ġwinning": 7569,
      "Ġroo": 7570,
      "urs": 7571,
      "Ġfile": 7572,
      "Ġduties": 7573,
      "Ġscissor": 7574,
      "Ġfarewell": 7575,
      "llo": 7576,
      "Ġnois": 7577,
      "Ġmaiden": 7578,
      "Ġicy": 7579,
      "Ġmate": 7580,
      "Ġsunset": 7581,
      "Ġdescribed": 7582,
      "Ġexhaustion": 7583,
      "ffic": 7584,
      "Ġsideways": 7585,
      "Ġincomp": 7586,
      "Ġrelaxing": 7587,
      "Ġrd": 7588,
      "iah": 7589,
      "Ġcoin": 7590,
      "Ġunderwear": 7591,
      "Ġtroublesome": 7592,
      "inger": 7593,
      "Ġrational": 7594,
      "Ġururu": 7595,
      "Ġdecisions": 7596,
      "Ġlur": 7597,
      "Ġteaching": 7598,
      "ops": 7599,
      "Ġcrouched": 7600,
      "Ġpend": 7601,
      "Ġcamer": 7602,
      "Ġencountered": 7603,
      "Ġimportantly": 7604,
      "inent": 7605,
      "Ġcards": 7606,
      "Ġreleasing": 7607,
      "Ġlowering": 7608,
      "Ġmystery": 7609,
      "Ġvamp": 7610,
      "Ġsupply": 7611,
      "Ġcollecting": 7612,
      "erald": 7613,
      "Ġconfidently": 7614,
      "arer": 7615,
      "Ġteenager": 7616,
      "Ġcompetition": 7617,
      "Ġboom": 7618,
      "Ġintrud": 7619,
      "Ġwre": 7620,
      "Ġwry": 7621,
      "Ġisol": 7622,
      "bon": 7623,
      "mail": 7624,
      "Ġreiner": 7625,
      "Ġintimidating": 7626,
      "Ġloos": 7627,
      "Ġcheris": 7628,
      "Ġbarr": 7629,
      "Ġgoo": 7630,
      "Ġyouki": 7631,
      "roll": 7632,
      "Ġtensed": 7633,
      "Ġtemperature": 7634,
      "Ġpartially": 7635,
      "Ġslay": 7636,
      "Ġreinhard": 7637,
      "asty": 7638,
      "Ġdav": 7639,
      "Ġrewards": 7640,
      "Ġsere": 7641,
      "Ġarrest": 7642,
      "Ġremote": 7643,
      "Ġruns": 7644,
      "Ġsobbing": 7645,
      "Ġlimits": 7646,
      "Ġtwil": 7647,
      "Ġkisses": 7648,
      "Ġhunting": 7649,
      "Ġmarked": 7650,
      "Ġasshole": 7651,
      "Ġinher": 7652,
      "Ġhige": 7653,
      "Ġprey": 7654,
      "Ġcalming": 7655,
      "Ġdrops": 7656,
      "Ġdisaster": 7657,
      "gins": 7658,
      "Ġsullen": 7659,
      "Ġflickered": 7660,
      "Ġminded": 7661,
      "Ġmaneu": 7662,
      "Ġtwilight": 7663,
      "Ġnation": 7664,
      "Ġcheza": 7665,
      "Ġplayfully": 7666,
      "Ġscenery": 7667,
      "att": 7668,
      "Ġclapped": 7669,
      "Ġslave": 7670,
      "Ġidly": 7671,
      "Ġsinking": 7672,
      "Ġlore": 7673,
      "Ġpha": 7674,
      "Ġrelig": 7675,
      "Ġgorgeous": 7676,
      "Ġhisoka": 7677,
      "Ġbits": 7678,
      "Ġpositions": 7679,
      "athed": 7680,
      "Ġcomprom": 7681,
      "Ġkatar": 7682,
      "hens": 7683,
      "hail": 7684,
      "Ġprecisely": 7685,
      "Ġecst": 7686,
      "Ġstable": 7687,
      "Ġjab": 7688,
      "Ġgermanian": 7689,
      "Ġsteadily": 7690,
      "Ġthoughtful": 7691,
      "Ġcann": 7692,
      "Ġanxiously": 7693,
      "Ġscenes": 7694,
      "Ġlid": 7695,
      "Ġlugg": 7696,
      "lend": 7697,
      "Ġareas": 7698,
      "Ġplanted": 7699,
      "Ġsummoned": 7700,
      "Ġphantom": 7701,
      "ifying": 7702,
      "Ġfights": 7703,
      "Ġcounting": 7704,
      "Ġengaged": 7705,
      "Ġvillain": 7706,
      "Ġpinched": 7707,
      "Ġlingered": 7708,
      "Ġluggage": 7709,
      "Ġbank": 7710,
      "rils": 7711,
      "Ġelim": 7712,
      "Ġclad": 7713,
      "Ġproven": 7714,
      "Ġscale": 7715,
      "Ġpeered": 7716,
      "retched": 7717,
      "Ġaffected": 7718,
      "Ġdrugs": 7719,
      "Ġfidget": 7720,
      "Ġalber": 7721,
      "Ġforgetting": 7722,
      "Ġillegal": 7723,
      "xxxxxxxxxxxxxxxx": 7724,
      "Ġcourtesy": 7725,
      "umber": 7726,
      "Ġsnort": 7727,
      "Ġcommanded": 7728,
      "Ġsignificant": 7729,
      "cra": 7730,
      "Ġmessed": 7731,
      "Ġindul": 7732,
      "Ġindepend": 7733,
      "Ġstatue": 7734,
      "thm": 7735,
      "Ġworkers": 7736,
      "Ġped": 7737,
      "Ġblown": 7738,
      "uate": 7739,
      "heim": 7740,
      "Ġwishing": 7741,
      "Ġpony": 7742,
      "Ġnotion": 7743,
      "ulating": 7744,
      "Ġstandards": 7745,
      "Ġimmort": 7746,
      "Ġlocks": 7747,
      "beit": 7748,
      "Ġregained": 7749,
      "Ġrepeatedly": 7750,
      "Ġintensity": 7751,
      "Ġdeaf": 7752,
      "Ġcaution": 7753,
      "Ġscientist": 7754,
      "Ġinterview": 7755,
      "bal": 7756,
      "Ġtig": 7757,
      "Ġaudible": 7758,
      "Ġstag": 7759,
      "Ġsomed": 7760,
      "Ġrecon": 7761,
      "Ġexplo": 7762,
      "Ġgenerally": 7763,
      "Ġstrode": 7764,
      "Ġcapture": 7765,
      "Ġnickn": 7766,
      "Ġalbeit": 7767,
      "Ġquarters": 7768,
      "rem": 7769,
      "Ġarched": 7770,
      "Ġsuppress": 7771,
      "Ġdelay": 7772,
      "Ġdoct": 7773,
      "Ġcomplaints": 7774,
      "Ġclassmate": 7775,
      "Ġdisgusted": 7776,
      "Ġswitched": 7777,
      "Ġsaga": 7778,
      "Ġwherever": 7779,
      "Ġsituations": 7780,
      "Ġpulls": 7781,
      "Ġmetho": 7782,
      "Ġdarkened": 7783,
      "Ġfridge": 7784,
      "Ġcracking": 7785,
      "Ġ~\"": 7786,
      "Ġdepths": 7787,
      "Ġmethods": 7788,
      "fter": 7789,
      "Ġfiring": 7790,
      "Ġsexual": 7791,
      "Ġdroo": 7792,
      "Ġlasted": 7793,
      "Ġthrob": 7794,
      "Ġinstructions": 7795,
      "Ġhari": 7796,
      "Ġsucked": 7797,
      "Ġsquir": 7798,
      "Ġrefusing": 7799,
      "Ġlabor": 7800,
      "Ġscanned": 7801,
      "Ġgeez": 7802,
      "ldo": 7803,
      "isc": 7804,
      "Ġria": 7805,
      "Ġelabor": 7806,
      "licted": 7807,
      "Ġdanced": 7808,
      "Ġnails": 7809,
      "Ġaristocratic": 7810,
      "inge": 7811,
      "Ġunaware": 7812,
      "Ġsubcon": 7813,
      "Ġjerk": 7814,
      "Ġdownstairs": 7815,
      "Ġregist": 7816,
      "Ġforbidden": 7817,
      "Ġdiscipl": 7818,
      "pit": 7819,
      "Ġlacking": 7820,
      "Ġregarded": 7821,
      "Ġresolved": 7822,
      "Ġrhythm": 7823,
      "wal": 7824,
      "Ġhmph": 7825,
      "Ġcocked": 7826,
      "Ġtalks": 7827,
      "Ġdamp": 7828,
      "Ġpiloting": 7829,
      "Ġunlocked": 7830,
      "Ġswallow": 7831,
      "Ġprivacy": 7832,
      "Ġinterven": 7833,
      "Ġrevy": 7834,
      "Ġcommunication": 7835,
      "Ġsomeday": 7836,
      "Ġjol": 7837,
      "Ġalar": 7838,
      "Ġribs": 7839,
      "Ġhandful": 7840,
      "Ġshakes": 7841,
      "Ġputs": 7842,
      "vant": 7843,
      "Ġell": 7844,
      "Ġliking": 7845,
      "Ġhanding": 7846,
      "Ġchasing": 7847,
      "Ġdrama": 7848,
      "Ġbasis": 7849,
      "zel": 7850,
      "Ġrevel": 7851,
      "keep": 7852,
      "Ġarts": 7853,
      "Ġoct": 7854,
      "Ġmou": 7855,
      "Ġsenki": 7856,
      "Ġinterfe": 7857,
      "Ġcontest": 7858,
      "Ġappearing": 7859,
      "Ġreminder": 7860,
      "Ġalberich": 7861,
      "Ġseal": 7862,
      "anda": 7863,
      "Ġfacial": 7864,
      "Ġeggs": 7865,
      "Ġrit": 7866,
      "irl": 7867,
      "Ġarriving": 7868,
      "Ġmikhail": 7869,
      "Ġalicia": 7870,
      "Ġsoubu": 7871,
      "Ġstring": 7872,
      "ailed": 7873,
      "Ġot": 7874,
      "Ġcrushing": 7875,
      "Ġseizure": 7876,
      "Ġhouses": 7877,
      "bow": 7878,
      "Ġrac": 7879,
      "Ġsuspiciously": 7880,
      "usive": 7881,
      "Ġchef": 7882,
      "Ġpleading": 7883,
      "Ġcolorful": 7884,
      "Ġtoes": 7885,
      "akov": 7886,
      "Ġsuicide": 7887,
      "burst": 7888,
      "Ġgenesis": 7889,
      "cia": 7890,
      "Ġsaliv": 7891,
      "Ġmoaned": 7892,
      "Ġyoujo": 7893,
      "Ġbrit": 7894,
      "Ġglist": 7895,
      "Ġgrowl": 7896,
      "lass": 7897,
      "Ġredd": 7898,
      "Ġasse": 7899,
      "Ġsuited": 7900,
      "ander": 7901,
      "Ġapolo": 7902,
      "Ġguessing": 7903,
      "Ġaccus": 7904,
      "Ġtasted": 7905,
      "Ġmixture": 7906,
      "Ġain": 7907,
      "izer": 7908,
      "Ġade": 7909,
      "Ġcrad": 7910,
      "eria": 7911,
      "ogue": 7912,
      "Ġinterp": 7913,
      "Ġparad": 7914,
      "Ġgrav": 7915,
      "bry": 7916,
      "Ġargh": 7917,
      "Ġdevast": 7918,
      "Ġgloves": 7919,
      "Ġshrine": 7920,
      "Ġlords": 7921,
      "Ġmaintained": 7922,
      "Ġhaunted": 7923,
      "Ġsuits": 7924,
      "Ġnoises": 7925,
      "Ġbelt": 7926,
      "Ġcorrected": 7927,
      "hiro": 7928,
      "oting": 7929,
      "Ġangle": 7930,
      "Ġklaxosaurs": 7931,
      "lin": 7932,
      "Ġvain": 7933,
      "Ġsche": 7934,
      "Ġgesturing": 7935,
      "Ġmilly": 7936,
      "Ġnavy": 7937,
      "race": 7938,
      "Ġkeiko": 7939,
      "Ġreasoning": 7940,
      "Ġinjury": 7941,
      "lia": 7942,
      "Ġstif": 7943,
      "Ġdelivered": 7944,
      "Ġsecretary": 7945,
      "Ġwhistle": 7946,
      "Ġein": 7947,
      "Ġappo": 7948,
      "Ġstella": 7949,
      "Ġeffectively": 7950,
      "Ġnu": 7951,
      "Ġcomparison": 7952,
      "Ġsevent": 7953,
      "lene": 7954,
      "orious": 7955,
      "Ġgrunt": 7956,
      "Ġslim": 7957,
      "Ġproperty": 7958,
      "Ġcecil": 7959,
      "Ġsuspicions": 7960,
      "Ġib": 7961,
      "Ġpow": 7962,
      "Ġkall": 7963,
      "Ġremembers": 7964,
      "Ġfiery": 7965,
      "Ġnarrowing": 7966,
      "Ġpuppy": 7967,
      "Ġshitty": 7968,
      "Ġdescription": 7969,
      "see": 7970,
      "Ġmanaging": 7971,
      "Ġsimultaneously": 7972,
      "vial": 7973,
      "Ġfurn": 7974,
      "Ġbetrayal": 7975,
      "Ġnewspaper": 7976,
      "Ġfart": 7977,
      "Ġkallen": 7978,
      "wood": 7979,
      "Ġcos": 7980,
      "Ġdial": 7981,
      "isha": 7982,
      "Ġintrig": 7983,
      "Ġbliss": 7984,
      "Ġchannel": 7985,
      "Ġhelmet": 7986,
      "Ġshallow": 7987,
      "Ġrooft": 7988,
      "dro": 7989,
      "Ġheir": 7990,
      "ales": 7991,
      "Ġchased": 7992,
      "Ġprayed": 7993,
      "Ġsensing": 7994,
      "Ġexecution": 7995,
      "Ġreserved": 7996,
      "Ġox": 7997,
      "Ġcord": 7998,
      "Ġenthusias": 7999,
      "ived": 8000,
      "Ġflav": 8001,
      "Ġfluff": 8002,
      "Ġlighter": 8003,
      "Ġdenied": 8004,
      "Ġwizards": 8005,
      "Ġdisguised": 8006,
      "sty": 8007,
      "Ġcandidate": 8008,
      "Ġexpedition": 8009,
      "Ġrack": 8010,
      "Ġfuton": 8011,
      "going": 8012,
      "Ġsophia": 8013,
      "Ġbranches": 8014,
      "Ġenthusiasm": 8015,
      "ino": 8016,
      "agall": 8017,
      "Ġdisappearing": 8018,
      "Ġcases": 8019,
      "Ġincreasingly": 8020,
      "Ġestablished": 8021,
      "Ġmcgon": 8022,
      "Ġchewed": 8023,
      "Ġkei": 8024,
      "Ġbarked": 8025,
      "Ġmcgonagall": 8026,
      "Ġsnape": 8027,
      "Ġerupted": 8028,
      "Ġpry": 8029,
      "Ġsoaked": 8030,
      "Ġoutburst": 8031,
      "Ġdonate": 8032,
      "Ġvirgin": 8033,
      "Ġunderground": 8034,
      "Ġsnatched": 8035,
      "Ġxxx": 8036,
      "Ġdele": 8037,
      "Ġbacks": 8038,
      "Ġcomplaining": 8039,
      "Ġechoing": 8040,
      "Ġyelling": 8041,
      "Ġsurge": 8042,
      "Ġbelieving": 8043,
      "Ġsmoking": 8044,
      "ograph": 8045,
      "Ġserebry": 8046,
      "Ġaoba": 8047,
      "Ġcraft": 8048,
      "Ġdais": 8049,
      "Ġcautious": 8050,
      "Ġsympathy": 8051,
      "Ġmisunderstanding": 8052,
      "Ġjudgment": 8053,
      "Ġsouls": 8054,
      "Ġlocker": 8055,
      "Ġcollapse": 8056,
      "Ġacknowledged": 8057,
      "Ġlecture": 8058,
      "Ġaspect": 8059,
      "Ġ(*": 8060,
      "Ġdeadpan": 8061,
      "Ġmurd": 8062,
      "Ġargued": 8063,
      "tect": 8064,
      "Ġhod": 8065,
      "Ġsnafu": 8066,
      "Ġmurde": 8067,
      "Ġchicken": 8068,
      "erson": 8069,
      "Ġchoices": 8070,
      "Ġvigor": 8071,
      "Ġdude": 8072,
      "Ġprime": 8073,
      "Ġexams": 8074,
      "Ġwoken": 8075,
      "Ġwildly": 8076,
      "Ġcafe": 8077,
      "Ġgenerous": 8078,
      "Ġsometime": 8079,
      "uish": 8080,
      "Ġforty": 8081,
      "Ġorg": 8082,
      "Ġserving": 8083,
      "Ġmagi": 8084,
      "Ġportion": 8085,
      "Ġkazuma": 8086,
      "craft": 8087,
      "Ġdelinqu": 8088,
      "Ġpraised": 8089,
      "Ġtraveling": 8090,
      "Ġweary": 8091,
      "Ġbelatedly": 8092,
      "Ġmotioned": 8093,
      "Ġescaping": 8094,
      "==": 8095,
      "Ġbiz": 8096,
      "Ġboast": 8097,
      "Ġidiots": 8098,
      "ni": 8099,
      "Ġreaches": 8100,
      "Ġplayful": 8101,
      "Ġoutcome": 8102,
      "Ġchir": 8103,
      "Ġtypes": 8104,
      "Ġconsiderate": 8105,
      "Ġattending": 8106,
      "Ġdodged": 8107,
      "Ġhonnouji": 8108,
      "Ġfiction": 8109,
      "Ġkak": 8110,
      "Ġunle": 8111,
      "Ġdemonstr": 8112,
      "Ġsarcastic": 8113,
      "Ġspice": 8114,
      "Ġconvenient": 8115,
      "Ġwink": 8116,
      "Ġwhim": 8117,
      "Ġplates": 8118,
      "Ġresumed": 8119,
      "Ġbangs": 8120,
      "Ġassignment": 8121,
      "Ġwww": 8122,
      "Ġasce": 8123,
      "Ġmurderer": 8124,
      "Ġnoel": 8125,
      "Ġtax": 8126,
      "Ġsis": 8127,
      "Ġweb": 8128,
      "Ġpitch": 8129,
      "ppled": 8130,
      "Ġrafa": 8131,
      "Ġpanicked": 8132,
      "Ġfixing": 8133,
      "Ġcelebrate": 8134,
      "arre": 8135,
      "Ġdarker": 8136,
      "Ġdaniel": 8137,
      "Ġassistance": 8138,
      "Ġblessing": 8139,
      "Ġwhoa": 8140,
      "Ġpulse": 8141,
      "Ġnasty": 8142,
      "Ġseeking": 8143,
      "renched": 8144,
      "Ġmuster": 8145,
      "Ġserebryakov": 8146,
      "Ġike": 8147,
      "Ġ.\"-": 8148,
      "Ġsect": 8149,
      "Ġinterrog": 8150,
      "Ġmuttering": 8151,
      "Ġryu": 8152,
      "Ġsniffed": 8153,
      "Ġsized": 8154,
      "Ġproduction": 8155,
      "heard": 8156,
      "Ġfee": 8157,
      "Ġkeys": 8158,
      "Ġmilk": 8159,
      "Ġconvey": 8160,
      "Ġattended": 8161,
      "Ġdisturb": 8162,
      "Ġcousin": 8163,
      "chief": 8164,
      "Ġyuff": 8165,
      "Ġfutile": 8166,
      "Ġverge": 8167,
      "Ġbizarre": 8168,
      "Ġpiss": 8169,
      "oti": 8170,
      "Ġcommotion": 8171,
      "Ġhind": 8172,
      "Ġcarl": 8173,
      "Ġsettling": 8174,
      "Ġdignity": 8175,
      "Ġmud": 8176,
      "Ġchop": 8177,
      "Ġprotagon": 8178,
      "Ġhodgins": 8179,
      "Ġfade": 8180,
      "Ġdau": 8181,
      "Ġ:)": 8182,
      "Ġmessy": 8183,
      "Ġmainly": 8184,
      "Ġjobs": 8185,
      "Ġdesperation": 8186,
      "Ġstrands": 8187,
      "Ġamp": 8188,
      "Ġbewilder": 8189,
      "Ġkil": 8190,
      "Ġspices": 8191,
      "iece": 8192,
      "Ġoverall": 8193,
      "Ġinterjected": 8194,
      "Ġdiam": 8195,
      "Ġfading": 8196,
      "Ġunbelie": 8197,
      "Ġregister": 8198,
      "Ġcharles": 8199,
      "Ġdestroying": 8200,
      "Ġmmm": 8201,
      "Ġpreser": 8202,
      "Ġstrongly": 8203,
      "ounced": 8204,
      "Ġabsorbed": 8205,
      "arse": 8206,
      "Ġdesert": 8207,
      "Ġfanf": 8208,
      "Ġdetected": 8209,
      "Ġcurtains": 8210,
      "Ġjac": 8211,
      "Ġendure": 8212,
      "Ġrail": 8213,
      "Ġraced": 8214,
      "Ġjustice": 8215,
      "Ġblowing": 8216,
      "Ġpersonnel": 8217,
      "Ġindign": 8218,
      "Ġconduct": 8219,
      "Ġarchitect": 8220,
      "Ġyuffie": 8221,
      "Ġfund": 8222,
      "Ġstirred": 8223,
      "Ġkakashi": 8224,
      "Ġevol": 8225,
      "Ġevel": 8226,
      "Ġbeds": 8227,
      "Ġcuts": 8228,
      "Ġaccurate": 8229,
      "Ġbewilderment": 8230,
      "Ġstuttered": 8231,
      "akuz": 8232,
      "Ġgrades": 8233,
      "Ġclimbing": 8234,
      "Ġunconsciously": 8235,
      "Ġplantation": 8236,
      "Ġmomentum": 8237,
      "Ġempt": 8238,
      "Ġjealousy": 8239,
      "Ġunhappy": 8240,
      "Ġbearing": 8241,
      "Ġtemporary": 8242,
      "Ġevelina": 8243,
      "Ġlacked": 8244,
      "Ġodds": 8245,
      "oop": 8246,
      "Ġsentiment": 8247,
      "Ġcasting": 8248,
      "Ġtechnology": 8249,
      "Ġflinch": 8250,
      "Ġdisturbed": 8251,
      "Ġpoking": 8252,
      "Ġoccasional": 8253,
      "Ġoreg": 8254,
      "Ġalpha": 8255,
      "Ġdealt": 8256,
      "Ġnegoti": 8257,
      "Ġluciela": 8258,
      "alg": 8259,
      "Ġmenu": 8260,
      "Ġeuro": 8261,
      "Ġvirt": 8262,
      "Ġadditional": 8263,
      "culi": 8264,
      "Ġdarted": 8265,
      "Ġheadmaster": 8266,
      "Ġthoughtfully": 8267,
      "Ġstrain": 8268,
      "Ġgoddamn": 8269,
      "ein": 8270,
      "cies": 8271,
      "ration": 8272,
      "Ġtess": 8273,
      "Ġeer": 8274,
      "Ġhumming": 8275,
      "Ġtrailing": 8276,
      "Ġsout": 8277,
      "Ġhook": 8278,
      "Ġclinging": 8279,
      "Ġkok": 8280,
      "ggy": 8281,
      "Ġforcefully": 8282,
      "mes": 8283,
      "Ġtreating": 8284,
      "Ġconsole": 8285,
      "Ġsaliva": 8286,
      "Ġdrained": 8287,
      "Ġcrept": 8288,
      "Ġtub": 8289,
      "Ġassess": 8290,
      "Ġstoic": 8291,
      "kerchief": 8292,
      "Ġconcentration": 8293,
      "oman": 8294,
      "Ġkre": 8295,
      "Ġimpress": 8296,
      "Ġcentre": 8297,
      "Ġcrawled": 8298,
      "Ġgoals": 8299,
      "Ġyuri": 8300,
      "Ġconfusing": 8301,
      "Ġforms": 8302,
      "Ġblankets": 8303,
      "Ġlv": 8304,
      "Ġlovers": 8305,
      "Ġyup": 8306,
      "Ġapprehens": 8307,
      "Ġgifts": 8308,
      "ooled": 8309,
      "Ġhandkerchief": 8310,
      "Ġfollows": 8311,
      "Ġundou": 8312,
      "Ġdummy": 8313,
      "rs": 8314,
      "Ġhelps": 8315,
      "mir": 8316,
      "airu": 8317,
      "ficial": 8318,
      "Ġincreasing": 8319,
      "Ġpupils": 8320,
      "Ġhits": 8321,
      "Ġkneeling": 8322,
      "Ġsenior": 8323,
      "Ġelsewhere": 8324,
      "Ġskilled": 8325,
      "Ġaikuro": 8326,
      "Ġtack": 8327,
      "Ġjokes": 8328,
      "Ġomega": 8329,
      "ores": 8330,
      "Ġunderstandable": 8331,
      "Ġindicated": 8332,
      "Ġmiracle": 8333,
      "Ġconditions": 8334,
      "Ġaccomplish": 8335,
      "Ġseeming": 8336,
      "Ġadap": 8337,
      "Ġmatoi": 8338,
      "Ġinfin": 8339,
      "Ġinsulted": 8340,
      "Ġunderest": 8341,
      "Ġdelighted": 8342,
      "Ġglee": 8343,
      "Ġobtained": 8344,
      "down": 8345,
      "uta": 8346,
      "Ġjae": 8347,
      "Ġaged": 8348,
      "Ġslice": 8349,
      "Ġparas": 8350,
      "Ġblurted": 8351,
      "Ġstrangers": 8352,
      "eving": 8353,
      "Ġjeremiah": 8354,
      "Ġ+": 8355,
      "Ġlicked": 8356,
      "Ġrect": 8357,
      "Ġimagining": 8358,
      "ergen": 8359,
      "Ġshots": 8360,
      "Ġdistraction": 8361,
      "Ġramp": 8362,
      "Ġmoreover": 8363,
      "Ġfavourite": 8364,
      "Ġluna": 8365,
      "Ġinstrument": 8366,
      "Ġtips": 8367,
      "Ġnervousness": 8368,
      "Ġsuccessfully": 8369,
      "Ġsneered": 8370,
      "Ġencouraged": 8371,
      "Ġsemi": 8372,
      "Ġresigned": 8373,
      "Ġroseberry": 8374,
      "Ġpaintings": 8375,
      "Ġcitiz": 8376,
      "Ġdonatelli": 8377,
      "Ġtas": 8378,
      "Ġtut": 8379,
      "Ġfang": 8380,
      "Ġapplied": 8381,
      "Ġfog": 8382,
      "ugu": 8383,
      "acles": 8384,
      "Ġstack": 8385,
      "Ġtraced": 8386,
      "Ġsurve": 8387,
      "Ġmonitor": 8388,
      "Ġpriority": 8389,
      "Ġclarice": 8390,
      "Ġlegendary": 8391,
      "Ġdistress": 8392,
      "Ġfatig": 8393,
      "Ġende": 8394,
      "Ġinvestigate": 8395,
      "Ġmerchants": 8396,
      "Ġundoubted": 8397,
      "eds": 8398,
      "Ġinex": 8399,
      "Ġinvolve": 8400,
      "Ġsqueezing": 8401,
      "Ġspoon": 8402,
      "eeee": 8403,
      "Ġreminds": 8404,
      "unching": 8405,
      "Ġlighting": 8406,
      "ernal": 8407,
      "Ġinternally": 8408,
      "Ġoblivious": 8409,
      "Ġrafaela": 8410,
      "nally": 8411,
      "Ġspur": 8412,
      "Ġincon": 8413,
      "Ġteenage": 8414,
      "Ġchatting": 8415,
      "Ġaggressive": 8416,
      "Ġretrieve": 8417,
      "eters": 8418,
      "Ġthief": 8419,
      "Ġtended": 8420,
      "sworth": 8421,
      "Ġcontrolled": 8422,
      "Ġmartial": 8423,
      "Ġeurope": 8424,
      "saka": 8425,
      "Ġdogs": 8426,
      "Ġpackage": 8427,
      "Ġwol": 8428,
      "osition": 8429,
      "Ġgrade": 8430,
      "Ġdistorted": 8431,
      "Ġmeetings": 8432,
      "together": 8433,
      "yoko": 8434,
      "Ġlifet": 8435,
      "Ġundoubtedly": 8436,
      "Ġyak": 8437,
      "Ġsugar": 8438,
      "Ġpeculi": 8439,
      "Ġbreaks": 8440,
      "Ġunwill": 8441,
      "lar": 8442,
      "Ġnunnally": 8443,
      "Ġdauf": 8444,
      "Ġoregairu": 8445,
      "Ġpeculiar": 8446,
      "Ġlance": 8447,
      "Ġthump": 8448,
      "Ġstroking": 8449,
      "Ġshorts": 8450,
      "Ġslytherin": 8451,
      "Ġdense": 8452,
      "Ġremin": 8453,
      "Ġimper": 8454,
      "Ġfuss": 8455,
      "Ġfemin": 8456,
      "Ġkiy": 8457,
      "Ġunison": 8458,
      "Ġthanked": 8459,
      "hesis": 8460,
      "Ġraid": 8461,
      "Ġdefeating": 8462,
      "Ġaug": 8463,
      "iga": 8464,
      "scape": 8465,
      "Ġassure": 8466,
      "Ġreplies": 8467,
      "Ġpose": 8468,
      "Ġsouma": 8469,
      "Ġshrugging": 8470,
      "Ġdedicated": 8471,
      "Ġought": 8472,
      "Ġhanzo": 8473,
      "Ġtiger": 8474,
      "arations": 8475,
      "Ġpatting": 8476,
      "Ġvoiced": 8477,
      "Ġdominique": 8478,
      "Ġadopted": 8479,
      "Ġtag": 8480,
      "inate": 8481,
      "Ġducked": 8482,
      "Ġsup": 8483,
      "umes": 8484,
      "elle": 8485,
      "Ġimportance": 8486,
      "Ġuncomfortably": 8487,
      "!!": 8488,
      "Ġinspection": 8489,
      "Ġcash": 8490,
      "Ġruff": 8491,
      "Ġfever": 8492,
      "Ġdesired": 8493,
      "Ġeyeing": 8494,
      "Ġindust": 8495,
      "Ġanticipated": 8496,
      "Ġastonished": 8497,
      "Ġoutright": 8498,
      "Ġabuse": 8499,
      "Ġmatt": 8500,
      "Ġsinging": 8501,
      "Ġpinned": 8502,
      "Ġlazily": 8503,
      "stood": 8504,
      "isation": 8505,
      "Ġpeek": 8506,
      "Ġlively": 8507,
      "Ġwander": 8508,
      "Ġmail": 8509,
      "bility": 8510,
      "jou": 8511,
      "Ġflashing": 8512,
      "Ġtilting": 8513,
      "Ġtwitch": 8514,
      "Ġreactions": 8515,
      "ustomed": 8516,
      "Ġmimi": 8517,
      "Ġaltogether": 8518,
      "Ġtape": 8519,
      "Ġneedle": 8520,
      "Ġobst": 8521,
      "Ġmarch": 8522,
      "Ġbento": 8523,
      "Ġlergen": 8524,
      "Ġsunday": 8525,
      "Ġmoist": 8526,
      "Ġrestless": 8527,
      "Ġwordlessly": 8528,
      "Ġclovis": 8529,
      "Ġestablish": 8530,
      "Ġvenom": 8531,
      "rant": 8532,
      "Ġmovies": 8533,
      "Ġobey": 8534,
      "oko": 8535,
      "Ġrecognition": 8536,
      "Ġbunk": 8537,
      "Ġhaa": 8538,
      "Ġglares": 8539,
      "Ġamusing": 8540,
      "Ġsimpl": 8541,
      "Ġvalent": 8542,
      "Ġtunnel": 8543,
      "Ġhors": 8544,
      "Ġstartling": 8545,
      "Ġsits": 8546,
      "Ġsets": 8547,
      "Ġdaze": 8548,
      "Ġbore": 8549,
      "Ġeman": 8550,
      "etic": 8551,
      "Ġonee": 8552,
      "Ġglowed": 8553,
      "Ġprospect": 8554,
      "icate": 8555,
      "Ġlehr": 8556,
      "Ġnonon": 8557,
      "Ġshivering": 8558,
      "Ġmaintaining": 8559,
      "Ġlehrgen": 8560,
      "illery": 8561,
      "Ġflung": 8562,
      "Ġsales": 8563,
      "Ġwelc": 8564,
      "Ġshudder": 8565,
      "Ġcompensation": 8566,
      "hn": 8567,
      "mist": 8568,
      "Ġbowing": 8569,
      "Ġplun": 8570,
      "Ġmath": 8571,
      "Ġmalenia": 8572,
      "Ġclan": 8573,
      "Ġenhan": 8574,
      "Ġwillingly": 8575,
      "Ġhonesty": 8576,
      "Ġcounted": 8577,
      "Ġpopola": 8578,
      "Ġgentlemen": 8579,
      "Ġnecessarily": 8580,
      "Ġharshly": 8581,
      "Ġfantasy": 8582,
      "Ġlump": 8583,
      "ench": 8584,
      "Ġ\"'": 8585,
      "utt": 8586,
      "Ġvegetables": 8587,
      "Ġguarded": 8588,
      "Ġfreaking": 8589,
      "Ġbandages": 8590,
      "Ġanem": 8591,
      "Ġunner": 8592,
      "Ġqui": 8593,
      "Ġflag": 8594,
      "Ġresidents": 8595,
      "Ġemil": 8596,
      "resp": 8597,
      "astered": 8598,
      "Ġdangerously": 8599,
      "lance": 8600,
      "ician": 8601,
      "Ġdepending": 8602,
      "Ġreliable": 8603,
      "Ġtransf": 8604,
      "Ġattracted": 8605,
      "Ġconverted": 8606,
      "Ġmonday": 8607,
      "Ġnicely": 8608,
      "Ġkokoro": 8609,
      "enger": 8610,
      "amura": 8611,
      "Ġskies": 8612,
      "Ġpatch": 8613,
      "Ġcattle": 8614,
      "Ġthumbs": 8615,
      "Ġaz": 8616,
      "Ġsplend": 8617,
      "iques": 8618,
      "Ġspoil": 8619,
      "Ġ&": 8620,
      "Ġsang": 8621,
      "Ġhovering": 8622,
      "Ġpurs": 8623,
      "Ġhence": 8624,
      "Ġlonel": 8625,
      "ouched": 8626,
      "Ġselling": 8627,
      "Ġorphan": 8628,
      "Ġexpert": 8629,
      "Ġtrainer": 8630,
      "Ġjog": 8631,
      "ula": 8632,
      "Ġblows": 8633,
      "Ġartillery": 8634,
      "Ġimproved": 8635,
      "lect": 8636,
      "Ġjen": 8637,
      "Ġchast": 8638,
      "Ġcram": 8639,
      "Ġsuppressed": 8640,
      "Ġthirteen": 8641,
      "Ġdirector": 8642,
      "Ġstarving": 8643,
      "Ġpardon": 8644,
      "Ġshred": 8645,
      "Ġrestrain": 8646,
      "Ġwidening": 8647,
      "Ġrocks": 8648,
      "Ġshelter": 8649,
      "lst": 8650,
      "ancing": 8651,
      "Ġharass": 8652,
      "Ġfucked": 8653,
      "Ġrelent": 8654,
      "Ġswallowing": 8655,
      "Ġinclined": 8656,
      "Ġfandom": 8657,
      "Ġsubs": 8658,
      "Ġdemanding": 8659,
      "Ġdebt": 8660,
      "eking": 8661,
      "Ġoverhead": 8662,
      "Ġships": 8663,
      "Ġparl": 8664,
      "Ġcampus": 8665,
      "Ġopinions": 8666,
      "Ġrepair": 8667,
      "Ġcommitted": 8668,
      "pir": 8669,
      "Ġtheo": 8670,
      "Ġemerald": 8671,
      "Ġwider": 8672,
      "otte": 8673,
      "Ġsucc": 8674,
      "Ġglory": 8675,
      "Ġopposed": 8676,
      "Ġalchemists": 8677,
      "Ġrapid": 8678,
      "Ġdilig": 8679,
      "Ġcheered": 8680,
      "Ġadri": 8681,
      "Ġorganized": 8682,
      "Ġexamined": 8683,
      "Ġnostalg": 8684,
      "human": 8685,
      "Ġhoo": 8686,
      "ddled": 8687,
      "Ġmug": 8688,
      "Ġwoods": 8689,
      "Ġdemeanor": 8690,
      "Ġellsworth": 8691,
      "cut": 8692,
      "dor": 8693,
      "Ġtobo": 8694,
      "Ġovers": 8695,
      "Ġguarantee": 8696,
      "nes": 8697,
      "Ġlos": 8698,
      "Ġforwards": 8699,
      "Ġabyssal": 8700,
      "izzy": 8701,
      "Ġaccused": 8702,
      "umpled": 8703,
      "Ġtwitching": 8704,
      "Ġnoisy": 8705,
      "agne": 8706,
      "Ġmanif": 8707,
      "Ġwrath": 8708,
      "Ġmeasured": 8709,
      "Ġearning": 8710,
      "Ġaffirm": 8711,
      "Ġliterature": 8712,
      "Ġvampire": 8713,
      "Ġtiming": 8714,
      "Ġwhilst": 8715,
      "Ġcooked": 8716,
      "Ġcontemplating": 8717,
      "Ġparticipated": 8718,
      "Ġyanked": 8719,
      "Ġhorses": 8720,
      "athing": 8721,
      "Ġdesires": 8722,
      "Ġdaddy": 8723,
      "Ġtugging": 8724,
      "Ġshimm": 8725,
      "Ġamid": 8726,
      "Ġshaken": 8727,
      "Ġleads": 8728,
      "Ġintimate": 8729,
      "Ġdislike": 8730,
      "uits": 8731,
      "uration": 8732,
      "Ġbedside": 8733,
      "Ġinfirm": 8734,
      "Ġaffairs": 8735,
      "Ġscanning": 8736,
      "Ġtoboe": 8737,
      "Ġener": 8738,
      "Ġliber": 8739,
      "Ġunified": 8740,
      "Ġmanor": 8741,
      "Ġmanager": 8742,
      "Ġtraged": 8743,
      "Ġfreeze": 8744,
      "Ġconsiderably": 8745,
      "Ġtraveled": 8746,
      "Ġpleaded": 8747,
      "Ġranks": 8748,
      "Ġwrists": 8749,
      "Ġmildly": 8750,
      "Ġchampagne": 8751,
      "Ġmagazine": 8752,
      "asum": 8753,
      "Ġconver": 8754,
      "aks": 8755,
      "Ġrod": 8756,
      "text": 8757,
      "Ġslash": 8758,
      "Ġyoungest": 8759,
      "Ġtrauma": 8760,
      "Ġfutoshi": 8761,
      "Ġgeneration": 8762,
      "Ġdebris": 8763,
      "Ġnudist": 8764,
      "Ġdiamond": 8765,
      "Ġstray": 8766,
      "Ġpurp": 8767,
      "Ġpistol": 8768,
      "iped": 8769,
      "uously": 8770,
      "atch": 8771,
      "althy": 8772,
      "Ġstil": 8773,
      "Ġbooth": 8774,
      "Ġsalv": 8775,
      "Ġmaclia": 8776,
      "Ġdevola": 8777,
      "Ġpractical": 8778,
      "eroom": 8779,
      "Ġcolour": 8780,
      "Ġruins": 8781,
      "Ġcrowded": 8782,
      "Ġhunched": 8783,
      "Ġcritical": 8784,
      "Ġscrut": 8785,
      "Ġprotagonist": 8786,
      "Ġawaken": 8787,
      "Ġdramatic": 8788,
      "Ġdisinte": 8789,
      "Ġwarn": 8790,
      "Ġfreezing": 8791,
      "Ġabsently": 8792,
      "Ġforgiveness": 8793,
      "Ġexperiences": 8794,
      "Ġdazed": 8795,
      "Ġmedi": 8796,
      "Ġbla": 8797,
      "Ġeducation": 8798,
      "Ġff": 8799,
      "Ġmeguri": 8800,
      "Ġconsumed": 8801,
      "Ġtrial": 8802,
      "Ġdreamed": 8803,
      "Ġinterrupting": 8804,
      "Ġmugg": 8805,
      "ounce": 8806,
      "Ġcharlotte": 8807,
      "Ġanya": 8808,
      "ivalent": 8809,
      "Ġjam": 8810,
      "Ġcanon": 8811,
      "Ġ...?": 8812,
      "Ġsleepy": 8813,
      "Ġpopulation": 8814,
      "Ġthug": 8815,
      "Ġaccustomed": 8816,
      "Ġeffic": 8817,
      "Ġheated": 8818,
      "org": 8819,
      "Ġups": 8820,
      "Ġresort": 8821,
      "Ġfighter": 8822,
      "Ġcharming": 8823,
      "Ġpolitics": 8824,
      "Ġadmiration": 8825,
      "Ġbrutal": 8826,
      "Ġcarlita": 8827,
      "cony": 8828,
      "Ġkou": 8829,
      "Ġstudies": 8830,
      "Ġtrivial": 8831,
      "Ġconstruction": 8832,
      "Ġlocking": 8833,
      "Ġbalcony": 8834,
      "Ġreunion": 8835,
      "Ġshine": 8836,
      "roc": 8837,
      "Ġouter": 8838,
      "Ġconference": 8839,
      "Ġboot": 8840,
      "Ġholes": 8841,
      "Ġappet": 8842,
      "Ġpotions": 8843,
      "Ġtastes": 8844,
      "Ġsuitable": 8845,
      "Ġsubordinate": 8846,
      "Ġsheepishly": 8847,
      "Ġgossip": 8848,
      "iked": 8849,
      "hib": 8850,
      "Ġfacility": 8851,
      "Ġchuckling": 8852,
      "Ġconcentrate": 8853,
      "Ġlame": 8854,
      "Ġblamed": 8855,
      "Ġnoticeable": 8856,
      "Ġreinforce": 8857,
      "Ġmiy": 8858,
      "Ġpromises": 8859,
      "Ġwelcomed": 8860,
      "Ġhears": 8861,
      "terior": 8862,
      "Ġintact": 8863,
      "Ġmatched": 8864,
      "Ġstomped": 8865,
      "Ġinsults": 8866,
      "Ġvacation": 8867,
      "Ġerrand": 8868,
      "Ġtoys": 8869,
      "oner": 8870,
      "Ġmarg": 8871,
      "Ġuniforms": 8872,
      "Ġsparkling": 8873,
      "Ġessentially": 8874,
      "Ġnickname": 8875,
      "Ġildo": 8876,
      "ham": 8877,
      "Ġattire": 8878,
      "Ġinfant": 8879,
      "Ġstrife": 8880,
      "Ġpenetr": 8881,
      "Ġswimming": 8882,
      "fold": 8883,
      "any": 8884,
      "Ġrh": 8885,
      "Ġmutual": 8886,
      "Ġflatly": 8887,
      "Ġhorrified": 8888,
      "Ġkim": 8889,
      "Ġparking": 8890,
      "Ġmedia": 8891,
      "Ġdetective": 8892,
      "Ġmisunderstood": 8893,
      "Ġindividuals": 8894,
      "Ġinfirmary": 8895,
      "Ġcue": 8896,
      "Ġkot": 8897,
      "istically": 8898,
      "Ġsunk": 8899,
      "Ġstroke": 8900,
      "natural": 8901,
      "Ġdizzy": 8902,
      "Ġginger": 8903,
      "Ġfriday": 8904,
      "Ġsliced": 8905,
      "erted": 8906,
      "Ġrew": 8907,
      "Ġunset": 8908,
      "Ġskipped": 8909,
      "Ġculture": 8910,
      "Ġclung": 8911,
      "Ġels": 8912,
      "Ġhomeroom": 8913,
      "Ġkuros": 8914,
      "Ġimpatient": 8915,
      "Ġumb": 8916,
      "Ġcarpet": 8917,
      "Ġblinding": 8918,
      "Ġteenagers": 8919,
      "Ġcockpit": 8920,
      "Ġfluid": 8921,
      "Ġfeminine": 8922,
      "Ġreze": 8923,
      "Ġdeem": 8924,
      "Ġdecides": 8925,
      "Ġguts": 8926,
      "ishes": 8927,
      "ageyama": 8928,
      "Ġengage": 8929,
      "Ġtossing": 8930,
      "Ġanemone": 8931,
      "ox": 8932,
      "Ġfrench": 8933,
      "Ġoni": 8934,
      "Ġfluttered": 8935,
      "Ġjackass": 8936,
      "Ġconvincing": 8937,
      "Ġvehicle": 8938,
      "Ġwriter": 8939,
      "Ġcheckpoint": 8940,
      "Ġyaha": 8941,
      "Ġours": 8942,
      "Ġsanageyama": 8943,
      "Ġdaisuke": 8944,
      "Ġymir": 8945,
      "outing": 8946,
      "Ġkidna": 8947,
      "Ġswordsman": 8948,
      "Ġinhaled": 8949,
      "Ġvom": 8950,
      "Ġcombination": 8951,
      "Ġcurling": 8952,
      "works": 8953,
      "Ġspoiled": 8954,
      "Ġritual": 8955,
      "jam": 8956,
      "Ġstain": 8957,
      "pended": 8958,
      "Ġinteg": 8959,
      "Ġbuttons": 8960,
      "Ġcourty": 8961,
      "Ġtraffic": 8962,
      "appe": 8963,
      "Ġfrustrating": 8964,
      "Ġmeaningless": 8965,
      "Ġjournal": 8966,
      "Ġskept": 8967,
      "Ġbor": 8968,
      "Ġdashed": 8969,
      "Ġloid": 8970,
      "Ġcracks": 8971,
      "Ġjeans": 8972,
      "Ġsham": 8973,
      "Ġadmire": 8974,
      "Ġlifeless": 8975,
      "Ġneighbor": 8976,
      "Ġdot": 8977,
      "osh": 8978,
      "Ġbottles": 8979,
      "Ġgasping": 8980,
      "Ġreassured": 8981,
      "Ġsincerely": 8982,
      "Ġbind": 8983,
      "Ġreception": 8984,
      "Ġstor": 8985,
      "Ġobedi": 8986,
      "Ġbrisk": 8987,
      "zard": 8988,
      "riages": 8989,
      "Ġwhimp": 8990,
      "Ġchaotic": 8991,
      "Ġkisuke": 8992,
      "Ġhammer": 8993,
      "Ġfeather": 8994,
      "Ġvall": 8995,
      "Ġshaft": 8996,
      "aughters": 8997,
      "Ġtruthfully": 8998,
      "Ġfurthermore": 8999,
      "Ġwiden": 9000,
      "Ġspilled": 9001,
      "Ġstumbling": 9002,
      "Ġ??": 9003,
      "Ġraining": 9004,
      "Ġowned": 9005,
      "Ġbodygu": 9006,
      "Ġcompare": 9007,
      "Ġsoftened": 9008,
      "Ġapologizing": 9009,
      "Ġbrighter": 9010,
      "Ġmidnight": 9011,
      "Ġdripped": 9012,
      "Ġragged": 9013,
      "Ġvisiting": 9014,
      "Ġnorthern": 9015,
      "Ġdelinquent": 9016,
      "oe": 9017,
      "Ġdisres": 9018,
      "Ġrejection": 9019,
      "Ġbeck": 9020,
      "Ġagitated": 9021,
      "ddy": 9022,
      "Ġconcerning": 9023,
      "Ġsasha": 9024,
      "Ġconcentrated": 9025,
[...]
